{
    "##arts": 20591,
    "tides": 22487,
    "way": 2126,
    "derbyshire": 15207,
    "feasible": 22945,
    "##rricular": 21231,
    "##graph": 14413,
    "ceiling": 5894,
    "fatally": 26292,
    "[unused800]": 805,
    "vows": 16495,
    "ecology": 13517,
    "##uppe": 29547,
    "ripped": 9157,
    "expected": 3517,
    "shocked": 7135,
    "satire": 18312,
    "inducted": 8120,
    "थ": 1324,
    "grease": 21956,
    "kuala": 15490,
    "executive": 3237,
    "flicker": 17909,
    "lids": 26122,
    "x": 1060,
    "[unused674]": 679,
    "gymnast": 25055,
    "distressed": 24305,
    "##bbly": 24200,
    "##hered": 27190,
    "risk": 3891,
    "regularly": 5570,
    "necessary": 4072,
    "vantage": 27274,
    "glint": 25263,
    "races": 3837,
    "claims": 4447,
    "silvia": 27827,
    "neon": 16231,
    "志": 1851,
    "listened": 7791,
    "harmon": 25546,
    "utah": 6646,
    "mickey": 11021,
    "trophies": 22236,
    "##sper": 17668,
    "##zman": 24340,
    "salty": 23592,
    "niagara": 15473,
    "##女": 30341,
    "local": 2334,
    "driven": 5533,
    "##vani": 27760,
    "airplane": 13297,
    "pride": 6620,
    "protective": 9474,
    "ve": 2310,
    "##mite": 23419,
    "explaining": 9990,
    "mysore": 20761,
    "interpretation": 7613,
    "folder": 19622,
    "leave": 2681,
    "[unused858]": 863,
    "##ан": 28995,
    "lion": 7006,
    "cruise": 8592,
    "keys": 6309,
    "chun": 20979,
    "nowhere": 7880,
    "##nally": 26827,
    "administratively": 23710,
    "suspects": 13172,
    "mcgraw": 24179,
    "portico": 23104,
    "if": 2065,
    "laborers": 23428,
    "recommended": 6749,
    "stanza": 29509,
    "geometry": 10988,
    "moreover": 9308,
    "##oot": 17206,
    "globally": 16452,
    "kemp": 20441,
    "marlon": 25861,
    "overlooking": 12549,
    "waterways": 21938,
    "presently": 12825,
    "importance": 5197,
    "minogue": 27736,
    "implant": 27159,
    "ص": 1284,
    "reminiscent": 14563,
    "##uman": 19042,
    "owl": 13547,
    "howe": 13358,
    "ru": 21766,
    "##onale": 22823,
    "pioneers": 13200,
    "wavelengths": 29263,
    "malay": 12605,
    "emerged": 6003,
    "cues": 23391,
    "coyotes": 26880,
    "peggy": 14911,
    "transferring": 14391,
    "1869": 7845,
    "##rama": 14672,
    "hugs": 24459,
    "##cuit": 28168,
    "longed": 23349,
    "foxes": 24623,
    "##makers": 12088,
    "##walker": 26965,
    "##ᵥ": 30045,
    "reformation": 13708,
    "chopra": 28826,
    "bavaria": 11606,
    "##neer": 19755,
    "display": 4653,
    "marker": 12115,
    "vein": 12818,
    "##itch": 20189,
    "poe": 18922,
    "1736": 28192,
    "money": 2769,
    "doha": 26528,
    "cody": 13326,
    "kyiv": 25669,
    "stuffing": 28652,
    "immortals": 26796,
    "childhood": 5593,
    "cream": 6949,
    "idols": 24438,
    "beloved": 11419,
    "theta": 23963,
    "##rito": 28414,
    "prof": 11268,
    "electrode": 28688,
    "bicycle": 10165,
    "walter": 4787,
    "mlb": 10901,
    "bent": 6260,
    "milo": 20359,
    "failures": 15428,
    "positions": 4460,
    "polly": 17543,
    "##tung": 21847,
    "beams": 13110,
    "##cb": 27421,
    "##hai": 10932,
    "candidate": 4018,
    "##gel": 12439,
    "broader": 12368,
    "##sel": 11246,
    "capita": 8353,
    "esther": 14631,
    "##eous": 14769,
    "follow": 3582,
    "ravaged": 25537,
    "standalone": 26609,
    "##ular": 7934,
    "dso": 22951,
    "developmental": 13908,
    "elevation": 6678,
    "became": 2150,
    "turnpike": 17116,
    "##made": 21565,
    "leak": 17271,
    "##jected": 24455,
    "jody": 27562,
    "pbs": 13683,
    "[unused180]": 185,
    "nathan": 7150,
    "upcoming": 9046,
    "race": 2679,
    "シ": 1706,
    "results": 3463,
    "hu": 15876,
    "立": 1931,
    "##hh": 23644,
    "libraries": 8860,
    "antwerp": 14003,
    "明": 1865,
    "ह": 1339,
    "##メ": 30252,
    "forests": 6138,
    "##burg": 4645,
    "##hop": 18471,
    "##cars": 20745,
    "##liche": 27412,
    "also": 2036,
    "assistants": 16838,
    "kitten": 18401,
    "mosques": 21922,
    "dough": 23126,
    "mw": 12464,
    "whales": 17967,
    "spaghetti": 26666,
    "「": 1641,
    "bounded": 10351,
    "##加": 30305,
    "torment": 21741,
    "##taken": 25310,
    "tries": 5363,
    "atkins": 21087,
    "cornered": 25878,
    "eligible": 7792,
    "cry": 5390,
    "##岡": 30358,
    "testament": 9025,
    "[unused381]": 386,
    "resolve": 10663,
    "zenith": 28672,
    "handler": 28213,
    "pp": 4903,
    "dodged": 28339,
    "armor": 8177,
    "##mic": 7712,
    "etat": 17997,
    "##fying": 14116,
    "meade": 26501,
    "regulate": 15176,
    "hands": 2398,
    "produces": 7137,
    "paragraph": 20423,
    "##fully": 7699,
    "zombies": 14106,
    "collingwood": 20044,
    "enabled": 9124,
    "horton": 18469,
    "hazards": 22010,
    "##cloth": 23095,
    "##sho": 22231,
    "maria": 3814,
    "vacated": 15348,
    "answered": 4660,
    "justices": 19867,
    "##ddled": 28090,
    "cheekbones": 27181,
    "before": 2077,
    "obsession": 17418,
    "officials": 4584,
    "fisherman": 19949,
    "##est": 4355,
    "##ysis": 20960,
    "kidnapped": 11364,
    "torso": 15190,
    "क": 1315,
    "pursed": 21954,
    "callie": 20072,
    "sarawak": 21546,
    "waist": 5808,
    "convened": 19596,
    "mb": 16914,
    "clerk": 7805,
    "portrait": 6533,
    "learned": 4342,
    "ᅭ": 1477,
    "waited": 4741,
    "##lization": 22731,
    "##ᄐ": 30003,
    "1940s": 7675,
    "evolving": 20607,
    "five": 2274,
    "rematch": 18229,
    "bomber": 9472,
    "eastman": 24252,
    "solving": 13729,
    "sticky": 15875,
    "##ept": 23606,
    "verification": 22616,
    "[unused146]": 151,
    "mechanic": 15893,
    "tanner": 12780,
    "emily": 6253,
    "lulu": 21744,
    "philadelphia": 4407,
    "marking": 10060,
    "##writer": 15994,
    "hurling": 10839,
    "stations": 3703,
    "recognizes": 14600,
    "wiltshire": 17045,
    "campaigning": 18524,
    "northamptonshire": 21367,
    "##uven": 27346,
    "accomplishment": 24718,
    "bosch": 25936,
    "destroyer": 9799,
    "euro": 9944,
    "lesions": 22520,
    "satisfy": 13225,
    "##kus": 22332,
    "shuffling": 24770,
    "convenient": 14057,
    "##stream": 21422,
    "draft": 4433,
    "buckled": 26368,
    "qc": 25196,
    "roofed": 26080,
    "##ield": 12891,
    "earnest": 17300,
    "ecosystems": 20440,
    "brighton": 10309,
    "monte": 10125,
    "or": 2030,
    "m³": 14241,
    "roster": 9238,
    "##ologies": 20792,
    "##lm": 13728,
    "dan": 4907,
    "bitch": 7743,
    "##غ": 29831,
    "##sw": 26760,
    "operation": 3169,
    "stiff": 10551,
    "williams": 3766,
    "##nson": 15551,
    "qing": 13282,
    "learners": 26262,
    "62": 5786,
    "skipper": 23249,
    "nash": 10594,
    "nike": 18368,
    "hostility": 18258,
    "violation": 11371,
    "##oe": 8913,
    "yuri": 14331,
    "##idad": 27893,
    "##oki": 23212,
    "gunn": 22079,
    "alexander": 3656,
    "implements": 22164,
    "##ა": 29974,
    "vol": 5285,
    "frances": 10360,
    "##mation": 28649,
    "asiatic": 23983,
    "ile": 17869,
    "182": 17691,
    "sociological": 24846,
    "wellesley": 25658,
    "profile": 6337,
    "accommodated": 28959,
    "##sius": 24721,
    "creeks": 24974,
    "貴": 1953,
    "##df": 20952,
    "271": 25103,
    "##aneous": 17191,
    "##eng": 13159,
    "johann": 8968,
    "turbulent": 22609,
    "ի": 1225,
    "pebbles": 28962,
    "##ten": 6528,
    "banned": 7917,
    "raged": 28374,
    "redesignated": 11836,
    "bobo": 27418,
    "courses": 5352,
    "ignatius": 26841,
    "contracting": 21012,
    "campuses": 13696,
    "political": 2576,
    "act": 2552,
    "##wee": 28394,
    "##nesian": 20281,
    "##ð": 29668,
    "fledged": 26712,
    "insights": 20062,
    "musicians": 5389,
    "##nary": 24041,
    "uno": 27776,
    "##less": 3238,
    "bitterness": 22364,
    "insistence": 20616,
    "##\\": 29635,
    "1709": 28955,
    "adaptation": 6789,
    "##ostal": 29381,
    "bow": 6812,
    "till": 6229,
    "##asco": 28187,
    "pseudonym": 13881,
    "chrome": 18546,
    "did": 2106,
    "wake": 5256,
    "##rika": 23778,
    "direction": 3257,
    "##icide": 21752,
    "abducted": 20361,
    "##frey": 22586,
    "##hem": 29122,
    "gently": 5251,
    "dispose": 27764,
    "deformation": 29130,
    "##江": 30423,
    "lurking": 24261,
    "##ilation": 29545,
    "however": 2174,
    "##hui": 20552,
    "##roy": 13238,
    "grid": 8370,
    "jurisprudence": 24697,
    "##arded": 28037,
    "上": 1742,
    "##bution": 29446,
    "tidal": 15065,
    "##yard": 14132,
    "##ャ": 30254,
    "chaos": 8488,
    "bobbie": 27731,
    "gracie": 19005,
    "karel": 28021,
    "adjusted": 10426,
    "battery": 6046,
    "conceived": 10141,
    "csa": 27804,
    "##een": 12129,
    "##km": 22287,
    "badge": 10780,
    "bangladesh": 7269,
    "help": 2393,
    "touched": 5028,
    "##physics": 15638,
    "decorative": 11584,
    "tuck": 18029,
    "bricks": 14219,
    "[unused741]": 746,
    "##な": 30193,
    "ম": 1370,
    "ᆼ": 1489,
    "shay": 18789,
    "##aria": 10980,
    "##eers": 22862,
    "211": 19235,
    "inmates": 13187,
    "cigar": 19135,
    "oricon": 22237,
    "pathways": 16910,
    "sutton": 11175,
    "farmers": 6617,
    "editing": 9260,
    "##hiko": 22204,
    "1759": 21667,
    "plum": 22088,
    "tran": 25283,
    "##log": 21197,
    "excavations": 14018,
    "differ": 11234,
    "homer": 11525,
    "ronnie": 11688,
    "strands": 14119,
    "conflicts": 9755,
    "carriers": 11363,
    "cyclone": 11609,
    "स": 1338,
    "philips": 19087,
    "hay": 10974,
    "apartments": 9620,
    "unused": 15171,
    "skinned": 19937,
    "progressed": 12506,
    "diagonal": 19754,
    "rajasthan": 16815,
    "##wark": 24298,
    "trademark": 11749,
    "357": 26231,
    "allegedly": 9382,
    "##hopper": 27330,
    "conclusions": 15306,
    "gary": 5639,
    "##rot": 21709,
    "emperors": 19655,
    "euclidean": 25826,
    "pacing": 15732,
    "lizard": 15450,
    "ki": 11382,
    "steady": 6706,
    "coptic": 27672,
    "combatants": 26622,
    "1638": 27497,
    "ul": 17359,
    "##abe": 16336,
    "##nas": 11649,
    "harbor": 6496,
    "##tz": 5753,
    "shouldered": 29383,
    "不": 1744,
    "tom": 3419,
    "1940": 3878,
    "##till": 28345,
    "hospice": 29277,
    "53": 5187,
    "vastly": 24821,
    "italians": 16773,
    "consecutive": 5486,
    "device": 5080,
    "coat": 5435,
    "present": 2556,
    "downloaded": 22817,
    "el": 3449,
    "hosts": 6184,
    "fuel": 4762,
    "culinary": 20560,
    "bulbs": 25548,
    "spontaneously": 27491,
    "monique": 26194,
    "darkened": 13755,
    "bust": 13950,
    "teaming": 27025,
    "alessandro": 17956,
    "calculate": 18422,
    "died": 2351,
    "volunteer": 6951,
    "anatomy": 13336,
    "hardy": 9532,
    "##心": 30375,
    "antarctic": 10227,
    "declaring": 13752,
    "behave": 16582,
    "forever": 5091,
    "tainted": 26392,
    "filippo": 28669,
    "mammalian": 26524,
    "recipients": 15991,
    "tipping": 25486,
    "valid": 9398,
    "##od": 7716,
    "##た": 30187,
    "380": 17014,
    "[unused802]": 807,
    "moons": 23377,
    "repaired": 13671,
    "accidental": 17128,
    "saturated": 23489,
    "এ": 1351,
    "reporters": 12060,
    "bash": 24234,
    "simultaneously": 7453,
    "priced": 21125,
    "wrestlemania": 28063,
    "fool": 7966,
    "johnny": 5206,
    "##uki": 14228,
    "purely": 11850,
    "responded": 5838,
    "##esses": 26636,
    "freighter": 27945,
    "##σ": 29733,
    "overseen": 22485,
    "marilyn": 14749,
    "##उ": 29849,
    "jacobs": 12988,
    "##gate": 5867,
    "##rford": 26430,
    "##№": 30106,
    "boxer": 10423,
    "amara": 28599,
    "dominates": 29532,
    "furry": 28662,
    "refuge": 9277,
    "electric": 3751,
    "innings": 7202,
    "##sin": 11493,
    "[unused931]": 936,
    "bull": 7087,
    "loans": 10940,
    "solidarity": 14657,
    "welcome": 6160,
    "basilica": 13546,
    "vaguely": 15221,
    "newspapers": 6399,
    "calculations": 16268,
    "yemen": 13968,
    "scenic": 12916,
    "raaf": 22709,
    "exhaustion": 15575,
    "in": 1999,
    "sometime": 8811,
    "武": 1889,
    "leighton": 26873,
    "kobe": 24113,
    "old": 2214,
    "320": 13710,
    "work": 2147,
    "##lem": 16930,
    "compliant": 24577,
    "elijah": 14063,
    "ants": 16111,
    "morals": 25288,
    "financial": 3361,
    "tumbled": 18303,
    "homes": 5014,
    "242": 22431,
    "une": 16655,
    "mecklenburg": 22007,
    "cloth": 8416,
    "landscapes": 12793,
    "gibson": 9406,
    "##kling": 20260,
    "really": 2428,
    "archive": 8756,
    "floats": 24885,
    "huts": 23326,
    "dangerous": 4795,
    "wax": 13844,
    "nationalities": 24904,
    "maximilian": 18838,
    "dark": 2601,
    "recognize": 6807,
    "thumping": 25996,
    "bright": 4408,
    "contaminated": 19450,
    "correspondent": 11370,
    "faculties": 18658,
    "anthologies": 25675,
    "photographs": 7008,
    "caucus": 13965,
    "macquarie": 23903,
    "carried": 3344,
    "plato": 18858,
    "##arus": 29133,
    "cadiz": 26342,
    "flushed": 12953,
    "opus": 16895,
    "buyer": 17634,
    "processes": 6194,
    "wainwright": 25305,
    "versions": 4617,
    "15": 2321,
    "##ytic": 21252,
    "cats": 8870,
    "catfish": 23723,
    "argued": 5275,
    "maroon": 22222,
    "##ray": 9447,
    "compassionate": 29353,
    "mines": 7134,
    "nicola": 17388,
    "dress": 4377,
    "jain": 17136,
    "volvo": 21074,
    "monitors": 15410,
    "##ed": 2098,
    "compares": 22963,
    "₄": 1551,
    "forbidden": 10386,
    "timmy": 27217,
    "delaware": 8452,
    "[unused977]": 982,
    "affected": 5360,
    "tasmanian": 21394,
    "[unused114]": 119,
    "assisting": 13951,
    "amend": 27950,
    "192": 17613,
    "assess": 14358,
    "milan": 6954,
    "œ": 1107,
    "##paper": 23298,
    "[unused461]": 466,
    "av": 20704,
    "iran": 4238,
    "looked": 2246,
    "classroom": 9823,
    "girlfriends": 27408,
    "moss": 10636,
    "patriarch": 12626,
    "fell": 3062,
    "sheldon": 19369,
    "aside": 4998,
    "##dget": 24291,
    "combination": 5257,
    "lifelong": 13506,
    "soaring": 23990,
    "samuel": 5212,
    "westminster": 9434,
    "hunter": 4477,
    "##llary": 24435,
    "trieste": 25199,
    "cruz": 8096,
    "script": 5896,
    "possibly": 4298,
    "maxim": 20446,
    "transit": 6671,
    "strip": 6167,
    "whistled": 26265,
    "pertaining": 20246,
    "tn": 28286,
    "ads": 14997,
    "differential": 11658,
    "om": 18168,
    "##ety": 27405,
    "danny": 6266,
    "bae": 25818,
    "alias": 14593,
    "tools": 5906,
    "solomon": 9168,
    "##free": 23301,
    "##box": 8758,
    "wiley": 18825,
    "##ena": 8189,
    "##э": 29756,
    "anwar": 28372,
    "##tify": 27351,
    "glover": 20012,
    "##kka": 15714,
    "jj": 29017,
    "somewhat": 5399,
    "often": 2411,
    "montpellier": 28153,
    "##thorpe": 22398,
    "##led": 3709,
    "sloop": 24786,
    "barker": 12852,
    "download": 8816,
    "##cton": 28312,
    "zodiac": 28501,
    "homicide": 18268,
    "senate": 4001,
    "flies": 10029,
    "attached": 4987,
    "eighty": 12021,
    "hedge": 17834,
    "nickel": 15519,
    "[unused860]": 865,
    "sour": 14768,
    "##rling": 22036,
    "modernism": 27254,
    "##14": 16932,
    "1834": 10700,
    "managing": 6605,
    "neural": 15756,
    "##jee": 16963,
    "efficient": 8114,
    "sofia": 8755,
    "##ヒ": 30245,
    "expression": 3670,
    "trey": 14826,
    "reprinted": 13603,
    "永": 1896,
    "dessert": 18064,
    "[unused44]": 45,
    "booked": 17414,
    "cavendish": 23570,
    "oakley": 28876,
    "radiated": 23000,
    "past": 2627,
    "##mon": 8202,
    "119": 13285,
    "[unused816]": 821,
    "boot": 9573,
    "dd": 20315,
    "scuba": 28651,
    "volta": 26089,
    "celebrations": 12035,
    "workforce": 14877,
    "choreographer": 17334,
    "debate": 5981,
    "##rring": 18807,
    "##ᵇ": 30033,
    "breathed": 8726,
    "##erson": 18617,
    "eli": 12005,
    "rana": 22175,
    "configured": 26928,
    "mclean": 17602,
    "##hane": 28006,
    "baskets": 25946,
    "tongues": 19677,
    "irritation": 17373,
    "minor": 3576,
    "myriad": 25028,
    "natives": 12493,
    "ic": 24582,
    "##itate": 17570,
    "alike": 11455,
    "insistent": 29204,
    "wb": 25610,
    "vanilla": 21161,
    "asset": 11412,
    "joyce": 11830,
    "robotic": 20478,
    "borrowing": 23733,
    "employing": 15440,
    "shortly": 3859,
    "insider": 25297,
    "##quist": 18331,
    "monograph": 24039,
    "become": 2468,
    "goes": 3632,
    "##oons": 27174,
    "##ර": 29941,
    "metz": 24424,
    "trumpet": 9368,
    "jesse": 7627,
    "silva": 11183,
    "watching": 3666,
    "##isse": 23491,
    "stirring": 18385,
    "trio": 7146,
    "brutality": 24083,
    "##भ": 29866,
    "352": 28906,
    "見": 1948,
    "breakers": 24742,
    "##ɪ": 29685,
    "caused": 3303,
    "131": 14677,
    "examinations": 14912,
    "journey": 4990,
    "remnants": 11270,
    "kathleen": 14559,
    "invaders": 17347,
    "middleton": 17756,
    "）": 1988,
    "poznan": 18320,
    "wizard": 10276,
    "##side": 7363,
    "risks": 10831,
    "brake": 13428,
    "sanford": 21153,
    "barrage": 19359,
    "boredom": 29556,
    "meteor": 23879,
    "embryo": 28086,
    "navy": 3212,
    "合": 1792,
    "eighteenth": 12965,
    "hal": 11085,
    "arroyo": 23882,
    "oswald": 17411,
    "gia": 27699,
    "guiana": 23568,
    "facial": 13268,
    "bungalow": 27563,
    "sophie": 8234,
    "##week": 28075,
    "books": 2808,
    "canteen": 26449,
    "digit": 15340,
    "1100": 22096,
    "sponsors": 13162,
    "variables": 10857,
    "matrix": 8185,
    "crested": 25413,
    "disdain": 25134,
    "gut": 9535,
    "##evich": 16277,
    "jury": 6467,
    "##bala": 25060,
    "canterbury": 9976,
    "116": 12904,
    "newly": 4397,
    "pools": 12679,
    "##itan": 25451,
    "##ped": 5669,
    "clauses": 24059,
    "##la": 2721,
    "##rds": 17811,
    "fatima": 27596,
    "scholarships": 15691,
    "[unused684]": 689,
    "~": 1066,
    "matteo": 24713,
    "sainte": 16947,
    "inquiry": 9934,
    "planner": 24555,
    "generation": 4245,
    "##ndi": 16089,
    "gerard": 11063,
    "viola": 10482,
    "powerful": 3928,
    "##ero": 10624,
    "##い": 30173,
    "denver": 7573,
    "##─": 30142,
    "investigation": 4812,
    "railroads": 16197,
    "##bby": 14075,
    "creature": 6492,
    "premature": 21371,
    "nz": 20008,
    "nests": 17415,
    "™": 1580,
    "##ole": 9890,
    "ginger": 14580,
    "giorgio": 17697,
    "elephant": 10777,
    "incentive": 20438,
    "spence": 22186,
    "prize": 3396,
    "chow": 20209,
    "kildare": 24275,
    "rovers": 9819,
    "##unds": 26698,
    "##ম": 29906,
    "##≤": 30135,
    "amazed": 15261,
    "gupta": 20512,
    "toilet": 11848,
    "##kis": 14270,
    "turf": 14585,
    "innovations": 15463,
    "exclusive": 7262,
    "adjective": 24931,
    "protector": 16167,
    "##cie": 23402,
    "juveniles": 25406,
    "78": 6275,
    "introductions": 25795,
    "marin": 16400,
    "smiley": 27420,
    "brady": 10184,
    "novi": 21574,
    "1820s": 28504,
    "##ran": 5521,
    "pmid": 20117,
    "abruptly": 9225,
    "chasing": 11777,
    "foothills": 18455,
    "span": 8487,
    "behold": 27541,
    "##tty": 15353,
    "ක": 1403,
    "夏": 1808,
    "sobbed": 25960,
    "249": 23628,
    "dyed": 28432,
    "propagation": 20594,
    "decca": 21079,
    "ned": 12311,
    "##tino": 25690,
    "portrayal": 13954,
    "replaces": 20736,
    "bands": 4996,
    "kat": 10645,
    "glamorgan": 23861,
    "##si": 5332,
    "cairo": 11096,
    "neoclassical": 22657,
    "stuart": 6990,
    "[unused529]": 534,
    "##words": 22104,
    "##ams": 13596,
    "by": 2011,
    "##rov": 12298,
    "shed": 8328,
    "motto": 12652,
    "coa": 28155,
    "stephan": 15963,
    "##uso": 26658,
    "m": 1049,
    "##note": 22074,
    "##bush": 22427,
    "climbed": 6589,
    "ability": 3754,
    "##iba": 18410,
    "bangor": 21895,
    "syrup": 23353,
    "jogging": 28233,
    "toronto": 4361,
    "##ᵍ": 30036,
    "##cius": 25393,
    "bounced": 13605,
    "hospitality": 15961,
    "nucleus": 13502,
    "souls": 9293,
    "sparkled": 28092,
    "止": 1887,
    "mandela": 26887,
    "flat": 4257,
    "specifications": 15480,
    "aiding": 24791,
    "indicator": 17245,
    "##ywood": 26985,
    "##wa": 4213,
    "charge": 3715,
    "bracket": 21605,
    "latham": 28737,
    "zaragoza": 25744,
    "fc": 4429,
    "scala": 26743,
    "##cian": 14483,
    "年": 1840,
    "##osis": 12650,
    "##ɒ": 29678,
    "##lake": 14530,
    "##sky": 5874,
    "trolley": 20820,
    "bladed": 27402,
    "hideous": 22293,
    "edict": 24754,
    "arcadia": 25178,
    "successively": 24288,
    "choral": 14564,
    "[unused65]": 66,
    "bleak": 21657,
    "ambassador": 6059,
    "housed": 7431,
    "rugged": 17638,
    "1771": 20708,
    "aiden": 15086,
    "neil": 6606,
    "•": 1528,
    "##zow": 22670,
    "##iciencies": 28227,
    "cornice": 27848,
    "montagu": 26241,
    "1769": 20663,
    "loads": 15665,
    "nes": 24524,
    "military": 2510,
    "##otte": 28495,
    "exposition": 13080,
    "##cture": 14890,
    "##æ": 29667,
    "membership": 5779,
    "mole": 16709,
    "##marks": 27373,
    "stuck": 5881,
    "managers": 10489,
    "曲": 1870,
    "holder": 9111,
    "veil": 15562,
    "nudged": 18666,
    "##oco": 24163,
    "salvador": 10582,
    "bender": 25386,
    "##nica": 12782,
    "cylinders": 18729,
    "##cate": 16280,
    "archbishop": 6507,
    "##ders": 13375,
    "##nge": 15465,
    "ק": 1264,
    "##ley": 3051,
    "sling": 27076,
    "##pone": 29513,
    "##tched": 28265,
    "overtime": 12253,
    "##gum": 22850,
    "##block": 23467,
    "##raus": 25965,
    "##明": 30391,
    "reinforced": 11013,
    "cause": 3426,
    "shea": 16994,
    "loyalists": 26590,
    "##°": 7737,
    "chloride": 19057,
    "appetite": 18923,
    "##ote": 12184,
    "[unused830]": 835,
    "bug": 11829,
    "181": 18596,
    "perimeter": 13443,
    "backstage": 20212,
    "temporarily": 8184,
    "##lene": 11474,
    "regina": 12512,
    "tunic": 23002,
    "down": 2091,
    "passed": 2979,
    "temperate": 16868,
    "##urn": 14287,
    "400": 4278,
    "##cturing": 19159,
    "current": 2783,
    "[unused220]": 225,
    "author": 3166,
    "[unused290]": 295,
    "afforded": 22891,
    "enjoyment": 20195,
    "fable": 28458,
    "simpson": 9304,
    "mutually": 20271,
    "what": 2054,
    "quasi": 17982,
    "hearted": 18627,
    "bravo": 17562,
    "convince": 8054,
    "description": 6412,
    "##ingdon": 29138,
    "sympathy": 11883,
    "violin": 6710,
    "ぬ": 1669,
    "wolves": 8588,
    "[unused683]": 688,
    "triad": 25355,
    "africans": 18076,
    "manson": 21440,
    "indigo": 22472,
    "microwave": 18302,
    "undercover": 16382,
    "[unused356]": 361,
    "spying": 22624,
    "##jiang": 21786,
    "dissertation": 14481,
    "[unused227]": 232,
    "nov": 13292,
    "modes": 11583,
    "colloquially": 23992,
    "carnival": 11485,
    "niche": 18111,
    "hazy": 26710,
    "##frid": 27439,
    "mentor": 10779,
    "##form": 14192,
    "pipe": 8667,
    "##ifice": 23664,
    "162": 17832,
    "cylinder": 7956,
    "satellites": 14549,
    "comet": 15699,
    "1898": 6068,
    "[unused346]": 351,
    "apple": 6207,
    "firearms": 13780,
    "burning": 5255,
    "[unused755]": 760,
    "##xx": 20348,
    "purchasing": 13131,
    "1630": 24994,
    "##kit": 23615,
    "tied": 5079,
    "lucky": 5341,
    "##ivate": 21466,
    "brightest": 26849,
    "fade": 12985,
    "cultures": 8578,
    "hasn": 8440,
    "acid": 5648,
    "halt": 9190,
    "stopping": 7458,
    "cumbria": 25559,
    "##2": 2475,
    "##nivorous": 29193,
    "against": 2114,
    "##ples": 21112,
    "dates": 5246,
    "hop": 6154,
    "unto": 19662,
    "peeled": 20956,
    "gdp": 14230,
    "singles": 3895,
    "burke": 9894,
    "interpreted": 10009,
    "constructions": 21913,
    "ascension": 18071,
    "[unused702]": 707,
    "inquiries": 27050,
    "rodgers": 15652,
    "quo": 22035,
    "stepmother": 26959,
    "grounds": 5286,
    "imperialism": 28087,
    "inheritance": 12839,
    "pascal": 17878,
    "flinch": 23224,
    "predator": 15267,
    "gulp": 26546,
    "revolutionaries": 24517,
    "ranger": 11505,
    "helpless": 13346,
    "corvette": 22687,
    "function": 3853,
    "wounding": 27285,
    "wavelength": 19934,
    "06": 5757,
    "kim": 5035,
    "believe": 2903,
    "miniseries": 13612,
    "campground": 29144,
    "disk": 9785,
    "##gia": 10440,
    "panzer": 16946,
    "praying": 14488,
    "periodically": 18043,
    "##fed": 25031,
    "toppled": 27251,
    "wiring": 27930,
    "growing": 3652,
    "grumbled": 17030,
    "indeed": 5262,
    "prepares": 20776,
    "##used": 13901,
    "loop": 7077,
    "palestine": 8976,
    "##辶": 30482,
    "probability": 9723,
    "##pp": 9397,
    "quincy": 16141,
    "aires": 9149,
    "captured": 4110,
    "glancing": 10167,
    "meters": 5563,
    "faux": 29276,
    "paradise": 9097,
    "correspond": 17254,
    "humiliating": 28284,
    "titans": 13785,
    "brownish": 19437,
    "##ists": 5130,
    "corrected": 13371,
    "explicit": 13216,
    "##me": 4168,
    "##eak": 25508,
    "##scopic": 24895,
    "wat": 28194,
    "farrell": 16248,
    "carp": 29267,
    "prefecture": 7498,
    "analytical": 17826,
    "output": 6434,
    "##croft": 14716,
    "dodd": 21258,
    "affiliate": 8727,
    "##hein": 26496,
    "lenses": 15072,
    "mayfield": 27224,
    "throbbing": 17061,
    "diving": 9404,
    "heron": 22914,
    "meditation": 13804,
    "hunted": 14682,
    "il": 6335,
    "beneficial": 15189,
    "delight": 12208,
    "##dice": 24598,
    "60": 3438,
    "liberties": 18271,
    "structurally": 29060,
    "portuguese": 5077,
    "returns": 5651,
    "ineligible": 22023,
    "##shed": 14740,
    "leaking": 24325,
    "cornell": 10921,
    "engine": 3194,
    "##ers": 2545,
    "##cis": 22987,
    "series": 2186,
    "quarterly": 12174,
    "sadness": 12039,
    "sanjay": 29590,
    "precision": 11718,
    "ε": 1159,
    "lowry": 27281,
    "georgie": 20280,
    "tak": 27006,
    "yorkshire": 7018,
    "語": 1950,
    "##fia": 22749,
    "brow": 8306,
    "durga": 28746,
    "fordham": 27302,
    "spatial": 13589,
    "リ": 1732,
    "sphinx": 27311,
    "constituted": 11846,
    "sole": 7082,
    "intellect": 24823,
    "470": 21064,
    "teammate": 10809,
    "m2": 25525,
    "vaulted": 24616,
    "##ae": 6679,
    "weasel": 29268,
    "ɒ": 1111,
    "cobb": 17176,
    "jealous": 9981,
    "slovenia": 10307,
    "picture": 3861,
    "midway": 12213,
    "[unused291]": 296,
    "aboriginal": 9757,
    "outlet": 13307,
    "baroness": 21479,
    "slides": 14816,
    "##(": 29619,
    "apparatus": 14709,
    "proton": 20843,
    "マ": 1723,
    "##coe": 16288,
    "caine": 19881,
    "disappearing": 14489,
    "genuine": 10218,
    "content": 4180,
    "lobbying": 19670,
    "##optera": 25324,
    "sane": 22856,
    "trombone": 13914,
    "cello": 10145,
    "projecting": 18398,
    "##oche": 23555,
    "ム": 1725,
    "1970s": 3955,
    "measuring": 9854,
    "sold": 2853,
    "backgrounds": 15406,
    "tightening": 18711,
    "courthouse": 10816,
    "##el": 2884,
    "[unused194]": 199,
    "berber": 27514,
    "##学": 30343,
    "##iferous": 23930,
    "metals": 11970,
    "[unused545]": 550,
    "slack": 19840,
    "clue": 9789,
    "minerals": 13246,
    "superstructure": 28391,
    "influenced": 5105,
    "bud": 13007,
    "beverage": 19645,
    "sending": 6016,
    "##de": 3207,
    "infancy": 22813,
    "warns": 19428,
    "[unused262]": 267,
    "##miento": 28883,
    "##sle": 25016,
    "fucking": 8239,
    "index": 5950,
    "intended": 3832,
    "512": 24406,
    "1897": 6347,
    "##anu": 24076,
    "scratched": 15047,
    "souza": 26598,
    "##nee": 24045,
    "breaker": 24733,
    "troupe": 16017,
    "disorders": 10840,
    "generalized": 18960,
    "##rle": 20927,
    "1806": 12518,
    "evidenced": 21328,
    "##tv": 9189,
    "perspectives": 15251,
    "inactive": 16389,
    "##rued": 28551,
    "lowell": 15521,
    "imagining": 16603,
    "julia": 6423,
    "motorsports": 20711,
    "eighties": 27690,
    "villain": 12700,
    "launcher": 22742,
    "butt": 10007,
    "biomass": 28148,
    "snoop": 29044,
    "##nz": 14191,
    "saul": 16897,
    "turn": 2735,
    "yiddish": 20112,
    "rom": 17083,
    "remark": 17674,
    "##nsk": 25564,
    "vulnerable": 8211,
    "moritz": 28461,
    "labrador": 18604,
    "faa": 17032,
    "tendencies": 20074,
    "anglo": 7819,
    "joe": 3533,
    "##yne": 9654,
    "temperature": 4860,
    "##☉": 30149,
    "##kata": 29123,
    "[unused533]": 538,
    "jed": 24401,
    "tirana": 24631,
    "alfredo": 19423,
    "spectra": 29237,
    "rescuing": 23659,
    "colder": 21399,
    "privilege": 14293,
    "[unused647]": 652,
    "clade": 21697,
    "disperse": 28736,
    "##kos": 15710,
    "sheriff": 6458,
    "symmetrical": 23476,
    "huskies": 29471,
    "mama": 9588,
    "launched": 3390,
    "personalities": 12857,
    "##ケ": 30229,
    "square": 2675,
    "mounted": 5614,
    "mcc": 23680,
    "adoptive": 24787,
    "measurement": 10903,
    "reminds": 15537,
    "mcconnell": 28514,
    "1945": 3386,
    "mills": 6341,
    "shot": 2915,
    "disclosure": 19380,
    "snow": 4586,
    "complained": 10865,
    "capt": 14408,
    "acacia": 24766,
    "guzman": 22789,
    "##lone": 27165,
    "##andra": 29159,
    "##oin": 28765,
    "70th": 26934,
    "strokes": 13692,
    "boyer": 23456,
    "iii": 3523,
    "##dhar": 25632,
    "##弘": 30369,
    "ny": 6396,
    "allah": 16455,
    "packaging": 14793,
    "paolo": 14174,
    "www": 7479,
    "anticipating": 26481,
    "sugar": 5699,
    "า": 1422,
    "plants": 4264,
    "willie": 9893,
    "newt": 25597,
    "##tm": 21246,
    "##ude": 12672,
    "[unused846]": 851,
    "any": 2151,
    "##shin": 17426,
    "lash": 25210,
    "marathi": 18388,
    "[unused558]": 563,
    "mathews": 23287,
    "format": 4289,
    "stanley": 6156,
    "##hu": 6979,
    "doomed": 20076,
    "##lies": 11983,
    "lviv": 23814,
    "tobago": 17247,
    "choke": 16769,
    "##ย": 29952,
    "421": 29403,
    "relocate": 20102,
    "adjustments": 24081,
    "##fast": 24333,
    "char": 25869,
    "##rao": 25667,
    "cherokee": 13796,
    "resurrection": 15218,
    "contend": 27481,
    "mick": 10872,
    "cub": 21987,
    "everyone": 3071,
    "phylogenetic": 23192,
    "ponds": 16879,
    "warehouses": 23319,
    "dignity": 13372,
    "₅": 1552,
    "##ario": 16843,
    "##rine": 11467,
    "[unused15]": 16,
    "##ckle": 19250,
    "repealed": 21492,
    "dynasty": 5321,
    "##nst": 23808,
    "salts": 23480,
    "creep": 19815,
    "##hope": 26441,
    "foolish": 13219,
    "bed": 2793,
    "##kawa": 13069,
    "##lberg": 22927,
    "consultancy": 24853,
    "##ned": 7228,
    "broadly": 13644,
    "employer": 11194,
    "hierarchical": 25835,
    "relics": 16712,
    "tc": 22975,
    "weakening": 22031,
    "variance": 23284,
    "gaulle": 28724,
    "another": 2178,
    "resist": 9507,
    "persuasion": 27577,
    "inverness": 22937,
    "juan": 5348,
    "ᴰ": 1492,
    "##enna": 24397,
    "##nched": 19282,
    "ghanaian": 27202,
    "intricate": 17796,
    "[unused554]": 559,
    "##方": 30389,
    "marijuana": 16204,
    "##rera": 24068,
    "smashing": 21105,
    "##fect": 25969,
    "##־": 29787,
    "##dge": 11818,
    "reddy": 18998,
    "glamour": 22439,
    "photographers": 17008,
    "tremble": 20627,
    "1932": 4673,
    "consisting": 5398,
    "smirk": 15081,
    "##name": 18442,
    "key": 3145,
    "awaiting": 15497,
    "ad": 4748,
    "highland": 10983,
    "##dc": 16409,
    "muttered": 6250,
    "trondheim": 26331,
    "pip": 28315,
    "orphan": 18211,
    "dillon": 14602,
    "dying": 5996,
    "therese": 25598,
    "##ก": 29945,
    "η": 1161,
    "fifties": 25942,
    "melt": 14899,
    "prescott": 20719,
    "##uan": 13860,
    "日": 1864,
    "##wg": 27767,
    "humanist": 24464,
    "desmond": 16192,
    "##hardt": 13778,
    "##bbed": 15499,
    "rough": 5931,
    "rama": 14115,
    "avoids": 26777,
    "章": 1932,
    "prove": 6011,
    "clandestine": 24450,
    "hamish": 28859,
    "brutal": 12077,
    "##村": 30404,
    "geography": 10505,
    "payment": 7909,
    "principals": 27928,
    "undertaken": 10607,
    "艹": 1939,
    "steadily": 11328,
    "asshole": 22052,
    "brain": 4167,
    "eternity": 12715,
    "on": 2006,
    "malacca": 28481,
    "brianna": 25558,
    "##itzer": 19253,
    "rhyme": 20622,
    "prick": 24858,
    "##ination": 12758,
    "##jevic": 26782,
    "quarters": 7728,
    "mundo": 25989,
    "bordering": 18299,
    "uncomfortably": 22502,
    "rv": 27634,
    "##olo": 12898,
    "guessed": 11445,
    "surprisingly": 10889,
    "vulgar": 29364,
    "commissioned": 4837,
    "rage": 7385,
    "reggae": 15662,
    "baritone": 14458,
    "##40": 12740,
    "risky": 19188,
    "[unused379]": 384,
    "telephone": 7026,
    "vietnamese": 9101,
    "tripped": 21129,
    "ே": 1398,
    "##logic": 27179,
    "osaka": 13000,
    "blasts": 25829,
    "maharashtra": 12434,
    "pits": 14496,
    "bribes": 29117,
    "surroundings": 11301,
    "posts": 8466,
    "[unused35]": 36,
    "vocals": 2955,
    "supporting": 4637,
    "gasped": 8535,
    "radiation": 8249,
    "##⁹": 30078,
    "estadio": 14143,
    "fungal": 28079,
    "74": 6356,
    "tyson": 19356,
    "breakfast": 6350,
    "##mpton": 26793,
    "##igate": 28731,
    "[unused523]": 528,
    "burmese": 14468,
    "autopsy": 24534,
    "absorb": 16888,
    "tensions": 13136,
    "##tering": 17989,
    "braking": 24427,
    "##henko": 19767,
    "##nos": 15460,
    "##mun": 23041,
    "gazes": 23514,
    "songwriter": 6009,
    "sweaty": 19889,
    "##⺩": 30158,
    "derives": 12153,
    "ₖ": 1565,
    "dupont": 22848,
    "thoroughly": 12246,
    "sound": 2614,
    "##ignant": 25593,
    "dina": 26146,
    "##aina": 27971,
    "texts": 6981,
    "1757": 22621,
    "kicker": 22652,
    "cheating": 16789,
    "##enas": 26474,
    "names": 3415,
    "proceeding": 18207,
    "shoe": 10818,
    "sonia": 16244,
    "electorate": 13694,
    "steam": 5492,
    "rubbish": 29132,
    "aqueduct": 24016,
    "##將": 30354,
    "upward": 10745,
    "flourishing": 29571,
    "hee": 18235,
    "andover": 29463,
    "##shah": 25611,
    "media": 2865,
    "side": 2217,
    "##q": 4160,
    "absurd": 18691,
    "progressively": 20519,
    "##dent": 16454,
    "furnishings": 23127,
    "satisfied": 8510,
    "tomb": 8136,
    "լ": 1226,
    "cass": 16220,
    "sports": 2998,
    "knesset": 27899,
    "ping": 17852,
    "interrupted": 7153,
    "proportion": 10817,
    "introduces": 13999,
    "tracking": 9651,
    "galician": 28830,
    "greta": 26111,
    "scout": 7464,
    "grandfather": 5615,
    "ʌ": 1134,
    "upgraded": 9725,
    "##mable": 24088,
    "##cher": 7474,
    "inducing": 29290,
    "1847": 9176,
    "deliver": 8116,
    "descendant": 12608,
    "น": 1413,
    "speed": 3177,
    "dim": 11737,
    "kathryn": 20484,
    "materials": 4475,
    "mobilization": 25580,
    "kid": 4845,
    "renaming": 24944,
    "##auer": 21126,
    "崎": 1834,
    "[unused785]": 790,
    "##ising": 9355,
    "murdoch": 19954,
    "stump": 22475,
    "sermons": 20855,
    "ח": 1248,
    "fran": 23151,
    "riddle": 21834,
    "đ": 1102,
    "horizontal": 9876,
    "specializing": 14055,
    "grow": 4982,
    "parents": 3008,
    "wales": 3575,
    "mouthed": 20521,
    "##md": 26876,
    "##hips": 19801,
    "##naud": 26160,
    "preserves": 18536,
    "skipping": 25978,
    "zhu": 15503,
    "exercises": 11110,
    "cecil": 11978,
    "submarine": 6982,
    "slicing": 26514,
    "##vita": 28403,
    "yves": 19687,
    "[unused714]": 719,
    "resolution": 5813,
    "a2": 22441,
    "mori": 22993,
    "allen": 5297,
    "madagascar": 11934,
    "sec": 10819,
    "purposes": 5682,
    "represented": 3421,
    "shells": 10986,
    "[unused458]": 463,
    "pissed": 9421,
    "enthusiasts": 20305,
    "granted": 4379,
    "mortality": 13356,
    "##dav": 29045,
    "apostolic": 11815,
    "slaughter": 14574,
    "stationary": 17337,
    "debated": 15268,
    "welcomed": 10979,
    "regulations": 7040,
    "revealing": 8669,
    "muddy": 15405,
    "null": 19701,
    "[unused46]": 47,
    "goddard": 22547,
    "multimedia": 14959,
    "erich": 17513,
    "pursued": 9505,
    "[unused301]": 306,
    "strikes": 9326,
    "1910s": 28088,
    "andrey": 29219,
    "challenged": 8315,
    "descends": 23328,
    "bolted": 18088,
    "sweeps": 26981,
    "##dder": 20791,
    "##ش": 29825,
    "vancouver": 6930,
    "solutions": 7300,
    "cindy": 15837,
    "distrust": 29245,
    "northeastern": 8763,
    "##ld": 6392,
    "leach": 24520,
    "##ciation": 23247,
    "rash": 23438,
    "stairs": 5108,
    "gunnar": 26138,
    "livingstone": 27656,
    "watery": 28259,
    "raped": 15504,
    "##use": 8557,
    "alert": 9499,
    "pearl": 7247,
    "felicity": 27357,
    "dickens": 19675,
    "constantly": 7887,
    "##iner": 26455,
    "legacy": 8027,
    "[unused544]": 549,
    "connecticut": 6117,
    "[unused416]": 421,
    "[unused122]": 127,
    "##60": 16086,
    "characteristic": 8281,
    "ames": 19900,
    "crossover": 16335,
    "alf": 24493,
    "recognise": 17614,
    "concentrate": 10152,
    "stride": 18045,
    "alpha": 6541,
    "anarchy": 26395,
    "gall": 26033,
    "suns": 19352,
    "մ": 1229,
    "bret": 25626,
    "ধ": 1365,
    "##udi": 21041,
    "detrimental": 29172,
    "##ouk": 27967,
    "bowling": 9116,
    "float": 14257,
    "##光": 30296,
    "spectacular": 12656,
    "[unused920]": 925,
    "girls": 3057,
    "jam": 9389,
    "1943": 3826,
    "garry": 21507,
    "##に": 30194,
    "balloons": 22163,
    "required": 3223,
    "molecule": 13922,
    "mistress": 10414,
    "leo": 6688,
    "[unused129]": 134,
    "##stor": 23809,
    "togo": 23588,
    "bono": 23648,
    "##／": 30518,
    "##cycle": 23490,
    "tajikistan": 23538,
    "unopposed": 17123,
    "##pas": 19707,
    "##nan": 7229,
    "##wari": 20031,
    "naples": 10553,
    "exhibits": 10637,
    "[unused687]": 692,
    "duet": 11979,
    "classified": 6219,
    "##rse": 22573,
    "weights": 15871,
    "raise": 5333,
    "พ": 1414,
    "mcqueen": 29265,
    "nap": 18996,
    "dat": 23755,
    "##imi": 27605,
    "##tism": 17456,
    "except": 3272,
    "manuel": 7762,
    "##30": 14142,
    "karim": 25461,
    "nocturnal": 23789,
    "price": 3976,
    "swirling": 16499,
    "digger": 28661,
    "fatalities": 20871,
    "jacques": 7445,
    "##ᴬ": 30026,
    "##tara": 27115,
    "xiang": 27735,
    "pending": 14223,
    "locations": 5269,
    "##、": 30161,
    "rains": 15811,
    "takes": 3138,
    "neighbor": 11429,
    "1890": 6193,
    "fireworks": 16080,
    "skater": 18815,
    "acquisition": 7654,
    "1860": 7313,
    "ravine": 23188,
    "kolkata": 13522,
    "chemotherapy": 27144,
    "##minster": 24431,
    "№": 1578,
    "road": 2346,
    "carts": 25568,
    "elmer": 21464,
    "afghan": 12632,
    "arizona": 5334,
    "rainfall": 10101,
    "mortgage": 14344,
    "63": 6191,
    "strategies": 9942,
    "glasgow": 6785,
    "warwickshire": 18430,
    "203": 18540,
    "ot": 27178,
    "wince": 29585,
    "mister": 12525,
    "marie": 5032,
    "trusted": 9480,
    "overwhelmed": 13394,
    "amtrak": 20208,
    "resultant": 28573,
    "neither": 4445,
    "drug": 4319,
    "##分": 30301,
    "[unused515]": 520,
    "weary": 16040,
    "marty": 12578,
    "##ater": 24932,
    "capture": 5425,
    "##nte": 10111,
    "roderick": 28326,
    "ether": 28855,
    "[unused476]": 481,
    "stitch": 26035,
    "unchanged": 15704,
    "outward": 15436,
    "conservatoire": 29233,
    "ibrahim": 13477,
    "##eki": 26576,
    "fare": 13258,
    "helplessly": 24942,
    "participating": 8019,
    "rivers": 5485,
    "®": 1079,
    "landslide": 20148,
    "economist": 11708,
    "baird": 20866,
    "##champ": 25450,
    "christmas": 4234,
    "front": 2392,
    "grams": 20372,
    "##ecin": 28191,
    "##rization": 26910,
    "##石": 30448,
    "ge": 16216,
    "socialists": 21633,
    "##pc": 15042,
    "mildly": 19499,
    "complimented": 27175,
    "galileo": 21514,
    "##堂": 30331,
    "protestant": 8330,
    "verb": 12034,
    "##ky": 4801,
    "##ures": 14900,
    "singled": 25369,
    "smyth": 28103,
    "##lide": 24198,
    "drugged": 25483,
    "spurs": 18205,
    "[unused872]": 877,
    "constituents": 24355,
    "guides": 12468,
    "##elman": 23830,
    "reforms": 8818,
    "##ato": 10610,
    "##lin": 4115,
    "##dents": 28986,
    "colleague": 11729,
    "##icum": 22167,
    "inevitable": 13418,
    "##mail": 21397,
    "[unused347]": 352,
    "cyclist": 14199,
    "offence": 15226,
    "education": 2495,
    "訁": 1949,
    "reappeared": 23040,
    "[unused769]": 774,
    "sensing": 13851,
    "growls": 27825,
    "heavenly": 16581,
    "easier": 6082,
    "##kari": 20224,
    "besides": 4661,
    "accompanied": 5642,
    "rainbow": 10098,
    "fiddle": 15888,
    "webber": 19861,
    "stains": 27094,
    "mushrooms": 23827,
    "##ax": 8528,
    "nominees": 17853,
    "colourful": 26102,
    "taken": 2579,
    "[unused33]": 34,
    "lectures": 8921,
    "plaster": 15673,
    "rates": 6165,
    "ւ": 1238,
    "grille": 26192,
    "eastwood": 24201,
    "accompanying": 10860,
    "letterman": 26593,
    "claudia": 13479,
    "coasts": 20266,
    "differentiate": 21032,
    "teenagers": 12908,
    "」": 1642,
    "appointed": 2805,
    "musa": 23154,
    "##osomal": 27642,
    "##iers": 10136,
    "judas": 25326,
    "defeated": 3249,
    "lasted": 6354,
    "outlying": 25376,
    "slit": 18036,
    "mohammad": 12050,
    "aziz": 21196,
    "223": 20802,
    "##mbe": 18552,
    "sophisticated": 12138,
    "1833": 11040,
    "##ₓ": 30092,
    "boomed": 28908,
    "closeness": 28398,
    "himalayan": 28333,
    "busy": 5697,
    "rigorous": 20001,
    "algorithm": 9896,
    "panic": 6634,
    "##fera": 27709,
    "##gul": 24848,
    "lt": 8318,
    "patel": 20455,
    "##ced": 11788,
    "ø": 1100,
    "satan": 16795,
    "resulting": 4525,
    "thayer": 25563,
    "conclusion": 7091,
    "continental": 6803,
    "ran": 2743,
    "voices": 5755,
    "ate": 8823,
    "woven": 17374,
    "##小": 30355,
    "317": 26628,
    "enduring": 16762,
    "groin": 20092,
    "##lad": 27266,
    "chandler": 13814,
    "##tum": 11667,
    "joints": 17651,
    "becoming": 3352,
    "pedersen": 27409,
    "ik": 20912,
    "bile": 23974,
    "apprenticeship": 20448,
    "paige": 17031,
    "shortage": 15843,
    "doom": 12677,
    "cambodia": 12899,
    "forster": 21316,
    "brussels": 9371,
    "unix": 19998,
    "syrian": 9042,
    "approved": 4844,
    "towards": 2875,
    "leg": 4190,
    ";": 1025,
    "uk": 2866,
    "buster": 18396,
    "democrats": 8037,
    "[unused134]": 139,
    "loves": 7459,
    "##eme": 21382,
    "alternate": 6585,
    "varied": 9426,
    "rotational": 25254,
    "as": 2004,
    "##ل": 23673,
    "##nous": 18674,
    "aeronautical": 25010,
    "subtly": 28797,
    "councillor": 10674,
    "translations": 11913,
    "gp": 14246,
    "realism": 15650,
    "specifically": 4919,
    "mclaughlin": 23720,
    "##lder": 16502,
    "[unused428]": 433,
    "##mobile": 17751,
    "[unused855]": 860,
    "lanka": 7252,
    "1930s": 5687,
    "annual": 3296,
    "##ately": 28239,
    "2012": 2262,
    "catastrophic": 23546,
    "epoch": 25492,
    "strong": 2844,
    "##ffed": 15388,
    "weigh": 17042,
    "bach": 10384,
    "gentry": 20262,
    "households": 3911,
    "##yah": 17560,
    "[unused569]": 574,
    "philosophy": 4695,
    "surround": 15161,
    "drastic": 23956,
    "visuals": 26749,
    "sentenced": 7331,
    "lookout": 19052,
    "darby": 25844,
    "256": 17273,
    "averaged": 11398,
    "collision": 12365,
    "##cted": 10985,
    "##wn": 7962,
    "authored": 8786,
    "safeguard": 28805,
    "paying": 7079,
    "rebounds": 11049,
    "butcher": 14998,
    "expectation": 17626,
    "carlo": 9758,
    "clasped": 16763,
    "costello": 21015,
    "reflex": 22259,
    "bishop": 3387,
    "curse": 8364,
    "##hof": 14586,
    "cedric": 26170,
    "ब": 1329,
    "rules": 3513,
    "addiction": 13449,
    "##upt": 29441,
    "either": 2593,
    "employs": 13495,
    "chaired": 12282,
    "daddy": 8600,
    "uneven": 17837,
    "weren": 4694,
    "ল": 1373,
    "handles": 16024,
    "##flower": 14156,
    "onboard": 27120,
    "songwriters": 20602,
    "easiest": 25551,
    "plastics": 26166,
    "suppression": 16341,
    "1731": 28446,
    "chilled": 23362,
    "size": 2946,
    "##−": 22543,
    "downwards": 28457,
    "happy": 3407,
    "dumont": 25830,
    "homecoming": 20772,
    "flank": 12205,
    "destroying": 9846,
    "metres": 3620,
    "sandy": 7525,
    "enclosed": 10837,
    "kinda": 17704,
    "##cci": 14693,
    "denote": 19090,
    "frankie": 12784,
    "peptide": 25117,
    "eisenhower": 16551,
    "command": 3094,
    "fitch": 26062,
    "shenzhen": 26555,
    "punjab": 9213,
    "elisabeth": 12877,
    "##rden": 18246,
    "79": 6535,
    "martin": 3235,
    "marylebone": 28537,
    "democrat": 7672,
    "##his": 24158,
    "##kala": 26907,
    "[unused601]": 606,
    "[unused814]": 819,
    "photographer": 8088,
    "##と": 30192,
    "haute": 18535,
    "shady": 22824,
    "##rne": 12119,
    "boxes": 8378,
    "fresco": 26991,
    "lineman": 24062,
    "##kken": 24192,
    "batsman": 13953,
    "misunderstanding": 24216,
    "inspecting": 29508,
    "uphold": 27329,
    "synagogue": 13067,
    "affects": 13531,
    "adding": 5815,
    "prospective": 17464,
    "1927": 4764,
    "donegal": 25415,
    "exploited": 18516,
    "landau": 28570,
    "clothing": 5929,
    "sm": 15488,
    "spilled": 13439,
    "dementia": 28767,
    "trois": 25527,
    "1938": 4260,
    "botswana": 19414,
    "##ducted": 29510,
    "##well": 4381,
    "cal": 10250,
    "petrol": 17141,
    "##¿": 29666,
    "scratching": 20291,
    "##iano": 15668,
    "##irus": 26013,
    "intuition": 26406,
    "gladstone": 21765,
    "exercised": 17747,
    "releasing": 8287,
    "healy": 25706,
    "[unused345]": 350,
    "[unused675]": 680,
    "ledge": 18283,
    "networks": 6125,
    "1828": 11517,
    "##ł": 18818,
    "roberts": 7031,
    "inventions": 21644,
    "workings": 24884,
    "##uel": 16284,
    "##saka": 29289,
    "grazing": 15400,
    "style": 2806,
    "controller": 11486,
    "##rth": 15265,
    "示": 1923,
    "adequately": 23613,
    "tourism": 6813,
    "commencement": 20561,
    "epa": 19044,
    "backlash": 25748,
    "aspirations": 22877,
    "braves": 13980,
    "mastering": 11495,
    "##uid": 21272,
    "groceries": 26298,
    "hit": 2718,
    "lineup": 10515,
    "dex": 20647,
    "##rly": 21194,
    "estonia": 10692,
    "spins": 23371,
    "##巿": 30363,
    "innsbruck": 28914,
    "bree": 21986,
    "##rky": 15952,
    "shaky": 15311,
    "ignorant": 21591,
    "care": 2729,
    "emphasizes": 20618,
    "hacker": 23307,
    "older": 3080,
    "israeli": 5611,
    "##aging": 16594,
    "sediments": 20476,
    "sir": 2909,
    "##ias": 7951,
    "husband": 3129,
    "enthusiast": 29550,
    "colonies": 8355,
    "discrimination": 9147,
    "isaac": 7527,
    "##combe": 14149,
    "##nov": 16693,
    "##ock": 7432,
    "shields": 11824,
    "heirs": 15891,
    "##ter": 3334,
    "arranging": 19018,
    "inward": 20546,
    "beneath": 4218,
    "exhibit": 8327,
    "##tial": 20925,
    "puzzle": 11989,
    "1961": 3777,
    "blizzard": 21689,
    "worry": 4737,
    "brasil": 21133,
    "lieu": 22470,
    "blake": 6511,
    "maine": 7081,
    "websites": 11744,
    "agreeing": 16191,
    "mono": 18847,
    "newscast": 20306,
    "deux": 24756,
    "yankee": 17652,
    "104": 9645,
    "[unused774]": 779,
    "mixture": 8150,
    "tail": 5725,
    "assign": 23911,
    "##ther": 12399,
    "incredibly": 11757,
    "molecular": 8382,
    "rann": 26312,
    "re": 2128,
    "up": 2039,
    "accommodate": 8752,
    "51": 4868,
    "[unused538]": 543,
    "wear": 4929,
    "fiba": 13651,
    "zionist": 21379,
    "ahl": 18347,
    "[unused361]": 366,
    "watt": 15231,
    "low": 2659,
    "penetrated": 21653,
    "credible": 23411,
    "unexpectedly": 14153,
    "##uld": 21285,
    "##holding": 23410,
    "cringed": 23952,
    "##mis": 15630,
    "disclose": 26056,
    "oleg": 25841,
    "overview": 19184,
    "beast": 6841,
    "##etti": 18319,
    "valued": 11126,
    "##lists": 27103,
    "wesley": 11482,
    "タ": 1709,
    "ranch": 8086,
    "observed": 5159,
    "venezuelan": 15332,
    "uv": 23068,
    "reflection": 9185,
    "grab": 6723,
    "chevrolet": 14724,
    "compound": 7328,
    "item": 8875,
    "clubs": 4184,
    "hampshire": 7035,
    "australian": 2827,
    "opaque": 28670,
    "moderator": 29420,
    "components": 6177,
    "nippon": 19364,
    "##tis": 7315,
    "##sha": 7377,
    "fuji": 20933,
    "[unused753]": 758,
    "##ini": 5498,
    "doctrines": 23252,
    "kazakhstan": 11769,
    "##oom": 17650,
    "accidentally": 9554,
    "gustave": 27973,
    "assimilation": 27574,
    "kenton": 25446,
    "[unused237]": 242,
    "[unused692]": 697,
    "modernization": 20181,
    "troll": 18792,
    "##cens": 19023,
    "##chester": 25322,
    "nightly": 22390,
    "##itive": 13043,
    "correctional": 20873,
    "commanded": 6311,
    "ex": 4654,
    "waller": 23550,
    "workshop": 8395,
    "imposing": 16625,
    "headlining": 26533,
    "neolithic": 19061,
    "##rating": 15172,
    "martina": 23508,
    "alphabet": 12440,
    "objectives": 11100,
    "##ट": 29856,
    "##ː": 23432,
    "jessica": 8201,
    "neighbouring": 9632,
    "gallant": 26984,
    "660": 20982,
    "halftime": 22589,
    "consult": 23363,
    "leiden": 20329,
    "##zak": 20685,
    "1701": 26059,
    "plague": 11629,
    "correctly": 11178,
    "debra": 28762,
    "persuaded": 11766,
    "##ez": 9351,
    "tenderness": 24605,
    "vanishing": 24866,
    "[unused602]": 607,
    "[unused157]": 162,
    "dominating": 21949,
    "hollis": 27477,
    "influential": 6383,
    "trenches": 19874,
    "clumsy": 22902,
    "galveston": 26630,
    "fiercely": 16265,
    "mueller": 26774,
    "organisations": 8593,
    "[unused502]": 507,
    "truncated": 25449,
    "[unused838]": 843,
    "jelly": 20919,
    "context": 6123,
    "joyah": 27098,
    "johnnie": 27716,
    "somme": 25158,
    "ensures": 21312,
    "intercontinental": 18725,
    "reproduced": 22296,
    "slung": 20078,
    "fellowships": 27298,
    "delicious": 12090,
    "parliament": 3323,
    "videos": 6876,
    "cubs": 12469,
    "1000": 6694,
    "##rani": 21578,
    "looted": 27775,
    "##ක": 29939,
    "##eries": 28077,
    "5": 1019,
    "danish": 5695,
    "evangelist": 24036,
    "sin": 8254,
    "dreamer": 24726,
    "mora": 26821,
    "##mple": 23344,
    "brackets": 19719,
    "breasts": 12682,
    "発": 1914,
    "commons": 7674,
    "1856": 8708,
    "woodrow": 23954,
    "##llon": 22179,
    "outburst": 27719,
    "subterranean": 28811,
    "outputs": 27852,
    "##დ": 29977,
    "bismarck": 22029,
    "sighed": 5489,
    "ノ": 1717,
    "wagner": 10304,
    "heel": 12073,
    "serena": 14419,
    "supermarket": 17006,
    "##ay": 4710,
    "##eti": 20624,
    "lima": 12967,
    "[unused682]": 687,
    "wreck": 12006,
    "generated": 7013,
    "basket": 10810,
    "##khov": 25495,
    "violating": 20084,
    "ン": 1737,
    "clearly": 4415,
    "finishes": 12321,
    "chilling": 27017,
    "sum": 7680,
    "flux": 19251,
    "fan": 5470,
    "granada": 16553,
    "##girl": 15239,
    "[unused367]": 372,
    "confident": 9657,
    "literally": 6719,
    "marginal": 14785,
    "accessory": 25339,
    "pursuits": 23719,
    "palermo": 18705,
    "rid": 9436,
    "iihf": 26904,
    "plains": 8575,
    "##и": 10325,
    "economical": 21791,
    "reconstructed": 14858,
    "olivia": 7710,
    "inviting": 15085,
    "##isation": 6648,
    "romance": 7472,
    "lastly": 22267,
    "hampered": 22532,
    "##rya": 20444,
    "bartlett": 20081,
    "drawing": 5059,
    "enhance": 11598,
    "tuscany": 23322,
    "[unused430]": 435,
    "juliette": 24696,
    "##eley": 22352,
    "pumps": 15856,
    "unemployed": 18787,
    "countless": 14518,
    "triple": 6420,
    "taut": 21642,
    "[unused561]": 566,
    "anthology": 9637,
    "[unused728]": 733,
    "##अ": 29847,
    "##itical": 26116,
    "##formed": 29021,
    "giro": 19226,
    "editorial": 8368,
    "setup": 16437,
    "whimpered": 26184,
    "filling": 8110,
    "glimpse": 12185,
    "charging": 13003,
    "vigorously": 22400,
    "##fied": 10451,
    "baths": 19692,
    "##aki": 8978,
    "57": 5401,
    "1830": 9500,
    "bowen": 16208,
    "hmm": 17012,
    "##fires": 26332,
    "##都": 30487,
    "sorts": 11901,
    "lashes": 16008,
    "translucent": 22897,
    "collier": 20466,
    "impossible": 5263,
    "redesigned": 17051,
    "mated": 28795,
    "federal": 2976,
    "##ν": 16177,
    "romney": 19615,
    "weighted": 18215,
    "##orf": 16347,
    "nassau": 14646,
    "##გ": 29976,
    "authorship": 26324,
    "staff": 3095,
    "andhra": 14065,
    "pedestal": 24496,
    "site": 2609,
    "手": 1858,
    "bastion": 26829,
    "##dation": 20207,
    "grassy": 22221,
    "gripped": 9672,
    "থ": 1363,
    "##run": 15532,
    "flynn": 13259,
    "disbelief": 12537,
    "38": 4229,
    "wage": 11897,
    "brigades": 14589,
    "responsive": 26651,
    "ʷ": 1143,
    "horizons": 24484,
    "katharine": 25739,
    "ท": 1412,
    "caves": 10614,
    "blues": 5132,
    "licked": 11181,
    "andy": 5557,
    "artifacts": 10471,
    "##ige": 25538,
    "hearth": 22885,
    "luckily": 15798,
    "protest": 6186,
    "##rations": 28893,
    "running": 2770,
    "མ": 1432,
    "[unused809]": 814,
    "##相": 30445,
    "ja": 14855,
    "susquehanna": 26361,
    "‡": 1527,
    "##29": 24594,
    "##zo": 6844,
    "memory": 3638,
    "##kov": 7724,
    "tr": 19817,
    "unharmed": 28150,
    "screened": 12238,
    "noting": 9073,
    "capturing": 11847,
    "commentary": 8570,
    "functioning": 12285,
    "obama": 8112,
    "obliged": 14723,
    "よ": 1684,
    "##⁴": 30073,
    "anthem": 11971,
    "enhanced": 9412,
    "fishermen": 16532,
    "manage": 6133,
    "lille": 22479,
    "static": 10763,
    "desirable": 16166,
    "lounge": 11549,
    "honolulu": 16598,
    "##morphic": 18078,
    "aggression": 14974,
    "activate": 20544,
    "gardens": 5822,
    "weeks": 3134,
    "##iest": 10458,
    "trucks": 9322,
    "##idon": 28201,
    "tuning": 17372,
    "peninsula": 6000,
    "22nd": 13816,
    "##ille": 10484,
    "##mme": 20058,
    "##lan": 5802,
    "algiers": 22947,
    "directions": 7826,
    "[unused311]": 316,
    "softball": 12585,
    "##ung": 5575,
    "michele": 15954,
    "boat": 4049,
    "##rva": 19146,
    "moffat": 28528,
    "olsen": 18997,
    "andrei": 18125,
    "guaranteed": 12361,
    "uninhabited": 24749,
    "collect": 8145,
    "inflation": 14200,
    "[unused982]": 987,
    "nutritional": 28268,
    "tiled": 26510,
    "conan": 16608,
    "ars": 29393,
    "accessible": 7801,
    "reddish": 14182,
    "[unused126]": 131,
    "fremont": 22550,
    "separate": 3584,
    "glared": 9400,
    "##rist": 15061,
    "##ッ": 30237,
    "recovery": 7233,
    "##eza": 28640,
    "viewpoint": 21386,
    "butterfly": 9112,
    "amalgamation": 21968,
    "intimidated": 28028,
    "##port": 6442,
    "##4": 2549,
    "forestry": 13116,
    "salman": 28542,
    "##deck": 26547,
    "##ffi": 26989,
    "lightning": 7407,
    "1965": 3551,
    "kowalski": 28874,
    "¨": 1074,
    "malaga": 27382,
    "##mc": 12458,
    "electricity": 6451,
    "tunis": 25317,
    "pry": 29198,
    "yer": 20416,
    "##grating": 28183,
    "astonishing": 26137,
    "gunshot": 22077,
    "octave": 21817,
    "cooperate": 17654,
    "genealogy": 26684,
    "490": 22288,
    "rodriguez": 9172,
    "##ides": 8621,
    "##tical": 14656,
    "emotions": 6699,
    "improvisation": 24584,
    "hush": 20261,
    "interface": 8278,
    "wembley": 16538,
    "600": 5174,
    "parachute": 13561,
    "社": 1924,
    "next": 2279,
    "elliptical": 27213,
    "migratory": 22262,
    "moon": 4231,
    "murders": 9916,
    "##rvis": 29074,
    "1727": 25350,
    "medicines": 20233,
    "##plin": 28296,
    "childbirth": 27162,
    "reports": 4311,
    "simeon": 24371,
    "uc": 15384,
    "ন": 1366,
    "1723": 26621,
    "progress": 5082,
    "tame": 24763,
    "##pace": 15327,
    "quarrel": 26260,
    "lays": 19764,
    "promenade": 26815,
    "bala": 21451,
    "velvet": 10966,
    "linen": 17517,
    "abolished": 8961,
    "support": 2490,
    "drum": 6943,
    "stain": 21101,
    "175": 12862,
    "[unused701]": 706,
    "nsa": 23971,
    "abbess": 28010,
    "asha": 24595,
    "brave": 9191,
    "frustration": 9135,
    "muzzle": 17750,
    "cracks": 15288,
    "##lch": 29358,
    "calabria": 29430,
    "mba": 15038,
    "spectators": 12405,
    "your": 2115,
    "inputs": 20407,
    "##cco": 21408,
    "charities": 15430,
    "##ali": 11475,
    "##truct": 18300,
    "jennie": 27557,
    "1570": 28881,
    "operate": 5452,
    "《": 1639,
    "##cier": 19562,
    "fabio": 25616,
    "##growth": 26982,
    "honey": 6861,
    "andersson": 28643,
    "##nable": 22966,
    "sellers": 19041,
    "stepped": 3706,
    "caleb": 10185,
    "bride": 8959,
    "niall": 21889,
    "squirrels": 29384,
    "jing": 21536,
    "surged": 18852,
    "thence": 23166,
    "attacking": 7866,
    "ago": 3283,
    "##19": 16147,
    "benji": 27231,
    "c1": 27723,
    "islamist": 27256,
    "sk": 15315,
    "##dia": 9032,
    "paired": 12739,
    "sentiment": 15792,
    "##hul": 21886,
    "001": 25604,
    "athens": 7571,
    "##pled": 21132,
    "113": 12104,
    "##shima": 24772,
    "irregular": 12052,
    "bothering": 17067,
    "practical": 6742,
    "##ils": 12146,
    "##ckey": 29183,
    "##dio": 20617,
    "afraid": 4452,
    "monitored": 17785,
    "strode": 11885,
    "gandhi": 12338,
    "edition": 3179,
    "pouch": 21445,
    "israelis": 28363,
    "1707": 25029,
    "authorised": 19256,
    "mansion": 7330,
    "ruined": 9868,
    "glass": 3221,
    "munro": 20923,
    "directly": 3495,
    "intrusion": 24554,
    "occasions": 6642,
    "creativity": 14842,
    "threats": 8767,
    "obligatory": 26471,
    "slaves": 7179,
    "[unused142]": 147,
    "definitely": 5791,
    "eldest": 7310,
    "paramilitary": 22258,
    "ratification": 27369,
    "tackle": 11147,
    "instructor": 9450,
    "purposely": 24680,
    "ribbon": 10557,
    "weiss": 17889,
    "butler": 7055,
    "##ava": 12462,
    "collin": 22180,
    "headwaters": 25345,
    "[unused409]": 414,
    "king": 2332,
    "lowland": 15234,
    "117": 12567,
    "##rigues": 22934,
    "streaked": 21276,
    "behavioral": 14260,
    "tomas": 12675,
    "arsenic": 29596,
    "pinned": 11807,
    "investment": 5211,
    "##ffie": 29055,
    "favor": 5684,
    "three": 2093,
    "appellate": 23240,
    "unnoticed": 22719,
    "sewage": 19873,
    "shelf": 11142,
    "concurrent": 16483,
    "farmer": 7500,
    "ymca": 26866,
    "sergeant": 6722,
    "philip": 5170,
    "admiral": 5902,
    "taiwan": 6629,
    "films": 3152,
    "[unused780]": 785,
    "independent": 2981,
    "pods": 26723,
    "loops": 15932,
    "noble": 7015,
    "##aby": 21275,
    "planck": 26486,
    "[unused912]": 917,
    "fashionable": 19964,
    "##shot": 19040,
    "29th": 16318,
    "paths": 10425,
    "runner": 5479,
    "##vent": 15338,
    "grimsby": 24470,
    "ρ": 1171,
    "hormone": 18714,
    "mojo": 28017,
    "arranger": 13981,
    "schumann": 29448,
    "epilogue": 24297,
    "##asian": 24145,
    "##zawa": 19708,
    "psi": 17816,
    "representatives": 4505,
    "nirvana": 26530,
    "cinematography": 16434,
    "blair": 10503,
    "enters": 8039,
    "diseases": 7870,
    "cells": 4442,
    "numbers": 3616,
    "century": 2301,
    "pizza": 10733,
    "dublin": 5772,
    "ministers": 7767,
    "complaining": 17949,
    "percival": 27832,
    "weighed": 12781,
    "accent": 9669,
    "honneur": 28197,
    "hampson": 21780,
    "inspirational": 28676,
    "nobel": 10501,
    "maureen": 19167,
    "##10": 10790,
    "##ᄀ": 29991,
    "axial": 26819,
    "##dya": 25838,
    "ذ": 1279,
    "[unused94]": 95,
    "weaver": 14077,
    "airways": 13095,
    "##tage": 26702,
    "gravely": 28070,
    "vessel": 6258,
    "##lit": 15909,
    "cyrus": 16123,
    "isolation": 12477,
    "##ilis": 24411,
    "closes": 14572,
    "bulgarian": 7643,
    "indigenous": 6284,
    "rosary": 28291,
    "##els": 9050,
    "##zing": 6774,
    "fang": 15197,
    "banda": 24112,
    "##ヘ": 30247,
    "screaming": 7491,
    "wes": 14008,
    "actor": 3364,
    "child": 2775,
    "clifton": 16271,
    "tide": 10401,
    "178": 19289,
    "robert": 2728,
    "uniquely": 20640,
    "soil": 5800,
    "##lein": 19856,
    "pickering": 27078,
    "oblivion": 24034,
    "[unused727]": 732,
    "amateurs": 24361,
    "##ears": 26492,
    "bingham": 24579,
    "[unused287]": 292,
    "longtime": 11155,
    "kapoor": 17129,
    "3a": 23842,
    "enactment": 26465,
    "june": 2238,
    "resides": 11665,
    "insisting": 22604,
    "cowboys": 11666,
    "fuse": 19976,
    "[unused491]": 496,
    "401": 22649,
    "##ce": 3401,
    "horatio": 27752,
    "utilize": 16462,
    "suspension": 8636,
    "##ception": 24422,
    "restoring": 16487,
    "##ulent": 27581,
    "##hea": 20192,
    "pamela": 17217,
    "##eke": 23941,
    "wigan": 15598,
    "龸": 1983,
    "shale": 18488,
    "eagerly": 17858,
    "mobility": 12969,
    "scales": 9539,
    "##ホ": 30248,
    "controversy": 6704,
    "stein": 14233,
    "viral": 13434,
    "##ngo": 16656,
    "##cing": 6129,
    "jolly": 22193,
    "agreements": 10540,
    "halle": 19769,
    "extend": 7949,
    "mixed": 3816,
    "luisa": 25412,
    "recommendation": 12832,
    "##izations": 22318,
    "nothin": 24218,
    "##vo": 6767,
    "##=": 29630,
    "belongs": 7460,
    "escapes": 12976,
    "skate": 17260,
    "slightest": 15989,
    "westbound": 24717,
    "relaunched": 26391,
    "appointments": 14651,
    "##ount": 21723,
    "normandy": 13298,
    "user": 5310,
    "marriott": 26490,
    "10th": 6049,
    "wiggled": 26750,
    "1780": 15051,
    "newtown": 26382,
    "##brates": 25258,
    "intensity": 8015,
    "texture": 14902,
    "twins": 8178,
    "／": 1992,
    "theodor": 21448,
    "kiev": 12100,
    "##sław": 23305,
    "##œ": 29674,
    "department": 2533,
    "drowning": 14759,
    "commentator": 12268,
    "nikolai": 13870,
    "awesome": 12476,
    "circumstance": 25652,
    "##rn": 6826,
    "teaching": 4252,
    "shove": 14738,
    "knife": 5442,
    "kraft": 26680,
    "daylight": 11695,
    "warning": 5432,
    "2010s": 26817,
    "officers": 3738,
    "google": 8224,
    "schooner": 21567,
    "##ilia": 27861,
    "abdul": 10298,
    "carlton": 12989,
    "cartridges": 22998,
    "##،": 29814,
    "[unused170]": 175,
    "cooked": 12984,
    "1672": 27253,
    "proposes": 17146,
    "boards": 7923,
    "reinforcement": 23895,
    "modeled": 14440,
    "channel": 3149,
    "ᵉ": 1499,
    "baronet": 8693,
    "arrived": 3369,
    "diana": 8805,
    "##ª": 29653,
    "apps": 18726,
    "whisky": 21265,
    "exclude": 23329,
    "catalytic": 26244,
    "combustion": 16513,
    "gathers": 29438,
    "torres": 13101,
    "rite": 14034,
    "terrible": 6659,
    "tutor": 14924,
    "viewed": 7021,
    "1968": 3380,
    "##enburg": 12059,
    "turkic": 22926,
    "bastard": 8444,
    "##minating": 27932,
    "donetsk": 29151,
    "hussein": 16543,
    "carlisle": 13575,
    "zone": 4224,
    "##men": 3549,
    "##zard": 26154,
    "ক": 1353,
    "adams": 5922,
    "##क": 29851,
    "confirmation": 13964,
    "identifiable": 27800,
    "eva": 9345,
    "evolve": 19852,
    "jr": 3781,
    "screening": 11326,
    "quartet": 8530,
    "strongest": 10473,
    "sudbury": 26487,
    "decree": 10037,
    "##地": 30328,
    "hers": 5106,
    "planet": 4774,
    "woodstock": 21028,
    "##hic": 16066,
    "##ge": 3351,
    "iconic": 14430,
    "ultrasound": 27312,
    "festival": 2782,
    "chatting": 22331,
    "endeavors": 28809,
    "paralysis": 26287,
    "erased": 23516,
    "inhibitors": 25456,
    "potter": 10693,
    "okay": 3100,
    "ო": 1450,
    "behalf": 6852,
    "anthropology": 12795,
    "somewhere": 4873,
    "##co": 3597,
    "##mt": 20492,
    "##aan": 14634,
    "blu": 14154,
    "##itor": 15660,
    "2002": 2526,
    "dilapidated": 29283,
    "massive": 5294,
    "shuddering": 25735,
    "wearing": 4147,
    "ceremony": 5103,
    "wadi": 28380,
    "##nir": 29339,
    "bachelor": 5065,
    "fulton": 17049,
    "westphalia": 22952,
    "assassination": 10102,
    "bankruptcy": 10528,
    "scented": 25738,
    "indifference": 25920,
    "##shi": 6182,
    "##tsa": 27110,
    "lashed": 25694,
    "##健": 30294,
    "transcription": 14193,
    "ј": 1214,
    "walk": 3328,
    "auditor": 20964,
    "##arion": 27548,
    "transmitters": 26288,
    "##½": 13714,
    "##ல": 29928,
    "seems": 3849,
    "rotherham": 27456,
    "sung": 7042,
    "empires": 23560,
    "sleepy": 17056,
    "##ilised": 21758,
    "##sibility": 28255,
    "[unused131]": 136,
    "[unused942]": 947,
    "doubles": 7695,
    "nursing": 8329,
    "indonesian": 9003,
    "hyderabad": 13624,
    "speechless": 25146,
    "##ound": 28819,
    "rhea": 24775,
    "子": 1816,
    "rabbit": 10442,
    "bsc": 23533,
    "troops": 3629,
    "##kei": 29501,
    "##vating": 26477,
    "##chuk": 26516,
    "infrastructure": 6502,
    "303": 19988,
    "parallel": 5903,
    "arkansas": 6751,
    "##ɲ": 29689,
    "mayer": 14687,
    "transforms": 21743,
    "delegation": 10656,
    "focuses": 7679,
    "ness": 23384,
    "propose": 16599,
    "destroy": 6033,
    "civil": 2942,
    "島": 1833,
    "passions": 25289,
    "wheelchair": 13204,
    "maintain": 5441,
    "##カ": 30226,
    "##ma": 2863,
    "bologna": 14102,
    "microscope": 24635,
    "##sse": 11393,
    "##楊": 30409,
    "980": 25195,
    "mate": 6775,
    "##ruff": 26919,
    "##aia": 27131,
    "competition": 2971,
    "kade": 26159,
    "man": 2158,
    "mandy": 18193,
    "significantly": 6022,
    "wealthiest": 27809,
    "barak": 27739,
    "twitter": 10474,
    "pony": 15606,
    "continues": 4247,
    "manning": 11956,
    "clicking": 22042,
    "dl": 21469,
    "[unused244]": 249,
    "thursday": 9432,
    "usd": 13751,
    "bedrock": 28272,
    "neighborhood": 5101,
    "成": 1854,
    "traded": 7007,
    "naval": 3987,
    "寺": 1827,
    "##low": 8261,
    "artistic": 6018,
    "document": 6254,
    "cheat": 21910,
    "devils": 13664,
    "##ailing": 29544,
    "##nami": 28987,
    "[unused592]": 597,
    "congressman": 12295,
    "michelangelo": 27701,
    "soo": 17111,
    "ashford": 26545,
    "1654": 27445,
    "kettle": 22421,
    "bellowed": 27386,
    "##isance": 28138,
    "supported": 3569,
    "##bain": 29148,
    "understood": 5319,
    "thank": 4067,
    "suspicion": 10928,
    "skills": 4813,
    "bryson": 26845,
    "periodic": 15861,
    "##thor": 27844,
    "##lkirk": 23913,
    "pee": 21392,
    "##lick": 25230,
    "stabilized": 27697,
    "##博": 30312,
    "[unused147]": 152,
    "##bai": 26068,
    "sinks": 23462,
    "assigns": 24022,
    "fastened": 24009,
    "obesity": 24552,
    "store": 3573,
    "bethany": 16559,
    "campaigns": 8008,
    "descend": 18855,
    "emergencies": 26360,
    "lyric": 13677,
    "raion": 24235,
    "elliot": 11759,
    "sizes": 10826,
    "##cheng": 21043,
    "##dit": 23194,
    "climax": 14463,
    "kilometres": 3717,
    "innovative": 9525,
    "letting": 5599,
    "##pine": 19265,
    "forbes": 10822,
    "jana": 23341,
    "allow": 3499,
    "truce": 18415,
    "insisted": 7278,
    "fascination": 18987,
    "##↓": 30114,
    "moravian": 28131,
    "昭": 1868,
    "clements": 28572,
    "≤": 1608,
    "southeastern": 8252,
    "woody": 13703,
    "##national": 25434,
    "surpassed": 15602,
    "guillaume": 20061,
    "##ivision": 24607,
    "platform": 4132,
    "phillip": 10852,
    "potent": 16834,
    "geoff": 14915,
    "宇": 1819,
    "##cratic": 17510,
    "marquis": 13410,
    "ℓ": 1577,
    "##sar": 10286,
    "##sume": 23545,
    "cumulative": 23260,
    "##dable": 20782,
    "fishes": 21995,
    "og": 13958,
    "sagged": 26719,
    "##∨": 30130,
    "jimmy": 5261,
    "##sch": 11624,
    "##ivism": 22486,
    "atomic": 9593,
    "excerpt": 28142,
    "ward": 4829,
    "##udged": 27066,
    "##ए": 29850,
    "bold": 7782,
    "forces": 2749,
    "boardwalk": 29496,
    "[unused556]": 561,
    "sister": 2905,
    "struck": 4930,
    "zeppelin": 22116,
    "##entation": 19304,
    "anxious": 11480,
    "daze": 28918,
    "creative": 5541,
    "##ee": 4402,
    "developments": 8973,
    "ள": 1393,
    "earl": 4656,
    "rogue": 12406,
    "##ァ": 30218,
    "##bei": 19205,
    "he": 2002,
    "slayer": 20005,
    "1641": 25702,
    "racism": 14398,
    "unseen": 16100,
    "fk": 14352,
    "overlap": 17702,
    "blade": 6085,
    "nw": 22064,
    "ش": 1283,
    "##lar": 8017,
    "linux": 11603,
    "stanisław": 26133,
    "elvis": 12280,
    "april": 2258,
    "havre": 28890,
    "##氵": 30420,
    "ע": 1259,
    "cries": 12842,
    "synth": 24203,
    "1746": 24507,
    "encourage": 8627,
    "mon": 12256,
    "friendships": 28956,
    "吉": 1793,
    "[unused73]": 74,
    "bella": 12101,
    "losers": 23160,
    "verse": 7893,
    "pottery": 11378,
    "##ticus": 29587,
    "reproduce": 21376,
    "denmark": 5842,
    "hotel": 3309,
    "flint": 13493,
    "##roving": 22046,
    "fourteen": 7426,
    "mutant": 15527,
    "printed": 6267,
    "glazed": 19724,
    "reason": 3114,
    "restrictions": 9259,
    "ล": 1418,
    "insist": 18292,
    "ignores": 26663,
    "invite": 13260,
    "##[": 29634,
    "halted": 12705,
    "quotes": 16614,
    "society": 2554,
    "ashe": 13402,
    "threshold": 11207,
    "adversary": 27248,
    "bilbao": 25427,
    "##थ": 29860,
    "detailed": 6851,
    "##uate": 20598,
    "maternity": 23676,
    "above": 2682,
    "fried": 13017,
    "vegetables": 11546,
    "activities": 3450,
    "turmoil": 17930,
    "copying": 24731,
    "romania": 6339,
    "ս": 1234,
    "canadian": 3010,
    "[unused104]": 109,
    "fresno": 20840,
    "trustees": 9360,
    "unable": 4039,
    "electrification": 23679,
    "roman": 3142,
    "wrapping": 12252,
    "cruiser": 10844,
    "frankenstein": 22478,
    "maze": 15079,
    "£2": 21853,
    "##amina": 27651,
    "theatrical": 8900,
    "splinter": 27546,
    "##თ": 29980,
    "##ian": 2937,
    "restrict": 21573,
    "charleston": 10907,
    "fuels": 20145,
    "reformed": 9114,
    "subgenus": 25356,
    "comfort": 7216,
    "bangladeshi": 24267,
    "janata": 20308,
    "baku": 16807,
    "ha": 5292,
    "bolivia": 11645,
    "dresden": 12983,
    "[unused406]": 411,
    "revised": 8001,
    "##ret": 13465,
    "hopes": 8069,
    "1821": 11723,
    "gone": 2908,
    "loss": 3279,
    "##ւ": 29785,
    "nwa": 15737,
    "path": 4130,
    "themselves": 3209,
    "doyle": 11294,
    "twilight": 13132,
    "console": 10122,
    "##hri": 26378,
    "##most": 11800,
    "##花": 30466,
    "sterling": 10933,
    "palatine": 22202,
    "‑": 1514,
    "rooted": 15685,
    "repay": 24565,
    "yeast": 21957,
    "submission": 12339,
    "drums": 3846,
    "preacher": 14512,
    "kahn": 19361,
    "##mute": 26746,
    "advised": 9449,
    "cottage": 9151,
    "##mine": 11233,
    "psychological": 8317,
    "1920s": 6641,
    "non": 2512,
    "edith": 13257,
    "xiao": 19523,
    "packets": 23730,
    "memorials": 22899,
    "liza": 20503,
    "mata": 22640,
    "[unused568]": 573,
    "captives": 21496,
    "feng": 19004,
    "nietzsche": 28898,
    "shallow": 8467,
    "я": 1210,
    "dizzy": 14849,
    "##tsu": 10422,
    "nhl": 7097,
    "robertson": 9923,
    "##lica": 19341,
    "intriguing": 23824,
    "[unused29]": 30,
    "swiped": 24452,
    "tuna": 24799,
    "mika": 27857,
    "[unused407]": 412,
    "viet": 19710,
    "[unused413]": 418,
    "tore": 9538,
    "cleaned": 12176,
    "##գ": 29768,
    "##kat": 24498,
    "adi": 27133,
    "retirement": 5075,
    "random": 6721,
    "assists": 8456,
    "ye": 6300,
    "marvelous": 28851,
    "case": 2553,
    "preschool": 23655,
    "makeup": 5789,
    "texas": 3146,
    "xp": 26726,
    "[unused536]": 541,
    "succeed": 9510,
    "exquisite": 19401,
    "seeks": 11014,
    "snatch": 23365,
    "##listic": 27348,
    "hawthorn": 21671,
    "philipp": 20765,
    "documents": 5491,
    "##pre": 28139,
    "65": 3515,
    "##agawa": 20812,
    "[unused722]": 727,
    "remained": 2815,
    "issn": 23486,
    "vanuatu": 27625,
    "cavalry": 5945,
    "##eros": 27360,
    "deeply": 6171,
    "##lho": 28061,
    "[unused470]": 475,
    "cavern": 16679,
    "minute": 3371,
    "decoration": 11446,
    "##rang": 24388,
    "##oped": 24174,
    "sep": 19802,
    "##tone": 5524,
    "disney": 6373,
    "##ø": 16415,
    "mahmud": 25886,
    "##arm": 27292,
    "##ism": 2964,
    "dec": 11703,
    "programs": 3454,
    "symbol": 6454,
    "occupations": 23374,
    "norma": 20692,
    "alarms": 29034,
    "mornings": 16956,
    "steel": 3886,
    "dialects": 11976,
    "བ": 1431,
    "grit": 24842,
    "record": 2501,
    "thumbs": 16784,
    "ash": 6683,
    "##bis": 18477,
    "collector": 10018,
    "1660": 17954,
    "こ": 1655,
    "blessed": 10190,
    "suburb": 7575,
    "lagoon": 15825,
    "harrington": 19760,
    "originating": 14802,
    "hurricanes": 17035,
    "holdings": 9583,
    "xml": 20950,
    "##ume": 17897,
    "clipped": 20144,
    "mariners": 18049,
    "##uche": 19140,
    "##რ": 29987,
    "armenians": 20337,
    "##rt": 5339,
    "lived": 2973,
    "spoil": 27594,
    "უ": 1454,
    "uttered": 20947,
    "trains": 4499,
    "bodies": 4230,
    "е": 1185,
    "##tling": 15073,
    "byzantine": 8734,
    "concept": 4145,
    "stigma": 26453,
    "ballad": 11571,
    "dinosaurs": 18148,
    "adopted": 4233,
    "inflicted": 17303,
    "##kel": 11705,
    "##hering": 22658,
    "abolitionist": 29554,
    "experience": 3325,
    "sd": 17371,
    "trailer": 9117,
    "##borough": 10235,
    "benefactor": 27398,
    "##tori": 29469,
    "##永": 30422,
    "detail": 6987,
    "[unused350]": 355,
    "quest": 8795,
    "##edance": 29605,
    "attends": 23933,
    "regular": 3180,
    "nokia": 22098,
    "joaquin": 16877,
    "uneasy": 15491,
    "##zy": 9096,
    "divinity": 16968,
    "shuttle": 10382,
    "##sum": 17421,
    "healthy": 7965,
    "##tri": 18886,
    "miracles": 17861,
    "philanthropic": 25321,
    "stanford": 8422,
    "##sei": 20240,
    "campeonato": 17675,
    "trailing": 12542,
    "##lice": 13231,
    "projects": 3934,
    "rand": 14566,
    "atlas": 11568,
    "lent": 15307,
    "##way": 4576,
    "ruthless": 18101,
    "sack": 12803,
    "cappella": 23013,
    "broom": 23528,
    "consisted": 5031,
    "fled": 6783,
    "excluding": 13343,
    "islands": 3470,
    "##ants": 11390,
    "filled": 3561,
    "tunisian": 22946,
    "boasts": 21979,
    "purpose": 3800,
    "attorney": 4905,
    "cloudy": 24706,
    "colossal": 29523,
    "##an": 2319,
    "probable": 15596,
    "##it": 4183,
    "moved": 2333,
    "shredded": 29022,
    "freshly": 20229,
    "sunday": 4465,
    "islanders": 16422,
    "##horpe": 22044,
    "enclosure": 17539,
    "pilasters": 26752,
    "##定": 30348,
    "pairing": 22778,
    "artillery": 4893,
    "dead": 2757,
    "##tura": 27431,
    "##±": 29657,
    "combat": 4337,
    "intuitive": 29202,
    "##hunter": 25629,
    "baba": 14208,
    "sniper": 17515,
    "##irs": 18894,
    "radical": 7490,
    "##nse": 12325,
    "ₙ": 1568,
    "demographic": 15982,
    "inch": 4960,
    "reflecting": 10842,
    "distance": 3292,
    "##aire": 14737,
    "organist": 16397,
    "##bber": 29325,
    "reactivated": 28577,
    "ং": 1346,
    "slowing": 18068,
    "##spar": 27694,
    "includes": 2950,
    "requesting": 17942,
    "shaped": 5044,
    "skating": 10080,
    "##ell": 5349,
    "##tos": 13122,
    "##ʁ": 29694,
    "liz": 9056,
    "voting": 6830,
    "##neck": 18278,
    "##some": 14045,
    "##cks": 10603,
    "martinique": 29365,
    "successful": 3144,
    "##ested": 17944,
    "nay": 29349,
    "obsidian": 29042,
    "contiguous": 25177,
    "##ishly": 19983,
    "##ache": 15395,
    "flop": 28583,
    "philosophers": 17586,
    "##у": 29748,
    "recited": 24843,
    "credentials": 22496,
    "hymn": 14825,
    "whispers": 11054,
    "proves": 16481,
    "journalist": 4988,
    "preferred": 6871,
    "##dates": 27122,
    "watches": 12197,
    "westwood": 21730,
    "disappointed": 9364,
    "editions": 6572,
    "eighth": 5964,
    "texans": 23246,
    "stolen": 7376,
    "exchequer": 28889,
    "eireann": 29157,
    "junction": 5098,
    "install": 16500,
    "##rter": 19418,
    "catherine": 6615,
    "sakura": 23066,
    "auguste": 20758,
    "の": 1671,
    "amin": 24432,
    "freestyle": 9817,
    "ს": 1452,
    "##enity": 20693,
    "joao": 16304,
    "outlaw": 19104,
    "##yev": 17240,
    "scoffed": 26326,
    "transitional": 17459,
    "##grass": 19673,
    "rani": 21617,
    "##ares": 17933,
    "dora": 21008,
    "eun": 26070,
    "ordinary": 6623,
    "real": 2613,
    "avalanche": 18846,
    "##ction": 7542,
    "ascended": 19644,
    "bind": 14187,
    "places": 3182,
    "trained": 4738,
    "##mmel": 29033,
    "light": 2422,
    "stick": 6293,
    "##my": 8029,
    "goalscorer": 28602,
    "##late": 13806,
    "reach": 3362,
    "biplane": 28686,
    "gentleman": 10170,
    "rs": 12667,
    "##meter": 22828,
    "medal": 3101,
    "bishopric": 20664,
    "car": 2482,
    "copyright": 9385,
    "ง": 1410,
    "[unused743]": 748,
    "miners": 11257,
    "regard": 7634,
    "superfamily": 24169,
    "##mes": 7834,
    "heck": 17752,
    "##tte": 4674,
    "pensions": 22024,
    "nat": 14085,
    "organizations": 4411,
    "disgrace": 29591,
    "2500": 25108,
    "frowning": 14587,
    "aix": 28443,
    "obscure": 14485,
    "##nsen": 29428,
    "heir": 8215,
    "subjected": 13532,
    "ze": 27838,
    "drones": 24633,
    "##itz": 8838,
    "awaited": 19605,
    "keyboards": 6269,
    "gazed": 11114,
    "squinting": 29156,
    "passion": 6896,
    "argue": 7475,
    "pretending": 12097,
    "beliefs": 9029,
    "containing": 4820,
    "す": 1658,
    "bowman": 19298,
    "##ness": 2791,
    "37th": 23027,
    "isa": 18061,
    "mps": 12616,
    "caldwell": 16589,
    "counter": 4675,
    "##havan": 24652,
    "edna": 21051,
    "##of": 11253,
    "smelling": 19773,
    "ラ": 1731,
    "regent": 11315,
    "[unused101]": 106,
    "secluded": 27044,
    "88": 6070,
    "##ging": 4726,
    "flooding": 9451,
    "relevance": 21923,
    "utterly": 12580,
    "##olt": 27914,
    "aren": 4995,
    "##aco": 22684,
    "effective": 4621,
    "##psis": 18409,
    "teatro": 16038,
    "##zuka": 22968,
    "##zi": 5831,
    "reeve": 20726,
    "##wald": 11191,
    "regional": 3164,
    "##zle": 29247,
    "interpreter": 19555,
    "正": 1888,
    "orr": 26914,
    "sits": 7719,
    "##ure": 5397,
    "depended": 17292,
    "##rant": 17884,
    "archway": 28189,
    "substituted": 17316,
    "##zily": 28431,
    "danced": 10948,
    "detention": 12345,
    "petersburg": 8062,
    "lad": 14804,
    "storyline": 9994,
    "gram": 13250,
    "##hi": 4048,
    "haas": 22996,
    "consolation": 24831,
    "[unused296]": 301,
    "##ays": 22916,
    "##alle": 24164,
    "alonso": 17649,
    "261": 24441,
    "degradation": 16627,
    "enforcement": 7285,
    "nottingham": 11331,
    "frequently": 4703,
    "structure": 3252,
    "cash": 5356,
    "opium": 21075,
    "cc": 10507,
    "##ion": 3258,
    "marge": 25532,
    "262": 21950,
    "accession": 16993,
    "predators": 12630,
    "victor": 5125,
    "yale": 7996,
    "teacher": 3836,
    "⊂": 1610,
    "##吉": 30319,
    "lid": 11876,
    "bay": 3016,
    "acclaimed": 10251,
    "technicians": 20202,
    "triggering": 29170,
    "hurricane": 7064,
    "##lver": 26229,
    "##ogo": 22844,
    "##rane": 18053,
    "282": 26267,
    "aware": 5204,
    "conquer": 16152,
    "ч": 1202,
    "coveted": 28821,
    "hypothetical": 25613,
    "lagos": 16738,
    "narrower": 22546,
    "perfectly": 6669,
    "ensign": 19890,
    "active": 3161,
    "votes": 4494,
    "diaz": 12526,
    "conjunction": 9595,
    "drunk": 7144,
    "dismissed": 7219,
    "##vor": 14550,
    "##হ": 29913,
    "rehearsal": 17887,
    "bram": 20839,
    "grim": 11844,
    "##sby": 14478,
    "successors": 18530,
    "olson": 21583,
    "daytime": 12217,
    "elsie": 24603,
    "livelihood": 24585,
    "undead": 17315,
    "##anal": 27953,
    "cad": 28353,
    "##ami": 10631,
    "1923": 4927,
    "thrusting": 21468,
    "independents": 23756,
    "remixed": 17574,
    "renewed": 9100,
    "tourists": 9045,
    "renovation": 10525,
    "ignited": 22395,
    "##meric": 25531,
    "diversified": 24908,
    "instincts": 16160,
    "dans": 18033,
    "lancaster": 10237,
    "##প": 29903,
    "processing": 6364,
    "ironically": 18527,
    "drag": 8011,
    "answers": 6998,
    "stars": 3340,
    "brethren": 17937,
    "racer": 14878,
    "hyde": 11804,
    "##ffin": 15379,
    "knox": 11994,
    "172": 18253,
    "miscellaneous": 25408,
    "pleasing": 24820,
    "relocated": 7448,
    "openly": 10132,
    "perform": 4685,
    "nominal": 15087,
    "proudly": 18067,
    "##“": 30058,
    "archipelago": 13888,
    "seekers": 24071,
    "##own": 12384,
    "##istic": 6553,
    "propped": 16863,
    "hazel": 14015,
    "##ential": 24271,
    "mourning": 16236,
    "さ": 1656,
    "copenhagen": 9664,
    "cochran": 28506,
    "transported": 9687,
    "austria": 5118,
    "focusing": 7995,
    "ice": 3256,
    "corinne": 26879,
    "opinion": 5448,
    "adaptive": 19293,
    "nape": 23634,
    "lunch": 6265,
    "excused": 28512,
    "##iu": 17922,
    "padres": 21577,
    "introduce": 8970,
    "##ator": 8844,
    "##dun": 27584,
    "bison": 22285,
    "##₃": 11622,
    "flaws": 21407,
    "lucan": 20764,
    "negotiating": 18875,
    "##master": 8706,
    "star": 2732,
    "greenberg": 24190,
    "dodge": 11898,
    "printers": 23557,
    "diamond": 6323,
    "sydney": 3994,
    "consort": 13440,
    "##tila": 26065,
    "heller": 25038,
    "##mina": 22311,
    "gardiner": 21143,
    "dissemination": 28170,
    "##nish": 24014,
    "repetition": 23318,
    "##itte": 27100,
    "tap": 11112,
    "1939": 3912,
    "exams": 13869,
    "mutiny": 19306,
    "trace": 7637,
    "##ob": 16429,
    "nouvelle": 25207,
    "reader": 8068,
    "rollins": 23502,
    "finish": 3926,
    "spiked": 25362,
    "institutional": 12148,
    "ro": 20996,
    "1604": 28754,
    "six": 2416,
    "solid": 5024,
    "prohibited": 10890,
    "南": 1785,
    "marianne": 19887,
    "##也": 30276,
    "bolshevik": 24477,
    "gentle": 7132,
    "shares": 6661,
    "ages": 5535,
    "dismounted": 29580,
    "graves": 9729,
    "ま": 1677,
    "neighbourhood": 10971,
    "cougars": 26317,
    "combo": 25025,
    "##พ": 29950,
    "[unused256]": 261,
    "1979": 3245,
    "headlights": 18167,
    "##rove": 17597,
    "[SEP]": 102,
    "haul": 14655,
    "burma": 11050,
    "rhineland": 21640,
    "##下": 30269,
    "hydraulic": 14761,
    "aluminum": 13061,
    "##obe": 20891,
    "brno": 28634,
    "motorized": 26172,
    "serviced": 22858,
    "##rgan": 16998,
    "bali": 20222,
    "##ues": 15808,
    "exclusively": 7580,
    "pioneering": 13280,
    "⺩": 1632,
    "wade": 10653,
    "##ined": 21280,
    "abe": 14863,
    "##urne": 21737,
    "golfer": 20601,
    "83": 6640,
    "migration": 9230,
    "observe": 11949,
    "activity": 4023,
    "requested": 7303,
    "##onal": 16026,
    "conversely": 18868,
    "externally": 27223,
    "procession": 14385,
    "deployed": 7333,
    "nuremberg": 19346,
    "oceania": 20526,
    "narrative": 7984,
    "mohammed": 12619,
    "lionel": 14377,
    "watershed": 12547,
    "inauguration": 17331,
    "vacant": 10030,
    "dew": 24903,
    "madame": 10602,
    "sleeping": 5777,
    "bladder": 24176,
    "1540": 27536,
    "educating": 25088,
    "patented": 16719,
    "banjo": 16698,
    "[unused112]": 117,
    "##tort": 25485,
    "shooter": 13108,
    "randy": 9744,
    "elemental": 19529,
    "superseded": 19886,
    "likewise": 10655,
    "[unused670]": 675,
    "hacked": 28719,
    "##fahan": 28975,
    "##missible": 26770,
    "shivers": 28464,
    "[unused442]": 447,
    "erika": 24900,
    "supposedly": 10743,
    "eyes": 2159,
    "affectionately": 28734,
    "geo": 20248,
    "##path": 15069,
    "[unused917]": 922,
    "generally": 3227,
    "ᴬ": 1490,
    "##founded": 21001,
    "##inski": 19880,
    "educate": 16957,
    "1884": 6988,
    "gloves": 11875,
    "##idae": 6096,
    "leaflets": 27306,
    "##iling": 16281,
    "favorable": 11119,
    "rumbled": 22257,
    "congregation": 7769,
    "gilbert": 7664,
    "clay": 5726,
    "martini": 24480,
    "securities": 12012,
    "fifa": 5713,
    "origins": 7321,
    "reacting": 24868,
    "prelate": 26595,
    "chimneys": 28885,
    "winfield": 24739,
    "again": 2153,
    "##tery": 20902,
    "北": 1781,
    "##原": 30313,
    "noticeably": 25327,
    "##som": 25426,
    "requiem": 21199,
    "united": 2142,
    "decisions": 6567,
    "##ony": 16585,
    "prologue": 18877,
    "amman": 25703,
    "infections": 15245,
    "farewell": 13407,
    "hopped": 17230,
    "pattern": 5418,
    "folds": 15439,
    "finalist": 9914,
    "##llar": 17305,
    "##τ": 29734,
    "cut": 3013,
    "plain": 5810,
    "storey": 11676,
    "##connected": 24230,
    "momentary": 29089,
    "yo": 10930,
    "cristina": 22246,
    "hides": 17382,
    "republic": 3072,
    "stronger": 6428,
    "purchased": 4156,
    "tu": 10722,
    "would": 2052,
    "degree": 3014,
    "##oke": 11045,
    "spending": 5938,
    "##ands": 29560,
    "pulpit": 23134,
    "regulation": 7816,
    "bowled": 19831,
    "rebels": 8431,
    "##rled": 27501,
    "idle": 18373,
    "solve": 9611,
    "ł": 1105,
    "##ivating": 17441,
    "##igo": 14031,
    "barclay": 23724,
    "cups": 10268,
    "##press": 20110,
    "technique": 6028,
    "myra": 23020,
    "##city": 12972,
    "senator": 5205,
    "##eve": 18697,
    "##59": 28154,
    "compilations": 22754,
    "##chison": 27795,
    "unity": 8499,
    "##llen": 12179,
    "[unused870]": 875,
    "locomotives": 7830,
    "smallest": 10479,
    "1957": 3890,
    "perpetrators": 27675,
    "##re": 2890,
    "catch": 4608,
    "operated": 3498,
    "##go": 3995,
    "##ru": 6820,
    "junk": 18015,
    "arte": 16185,
    "[unused844]": 849,
    "firmly": 7933,
    "lyndon": 23037,
    "archaeology": 12009,
    "##ructured": 26134,
    "charlie": 4918,
    "−": 1597,
    "recapture": 27639,
    "bulgaria": 8063,
    "criteria": 9181,
    "glider": 18788,
    "reasonable": 9608,
    "##ginal": 24965,
    "opened": 2441,
    "sovereignty": 12601,
    "ˢ": 1152,
    "[unused427]": 432,
    "[unused497]": 502,
    "amor": 16095,
    "coherent": 18920,
    "rebuilt": 7183,
    "rhode": 9763,
    "coins": 7824,
    "craven": 21232,
    "discomfort": 17964,
    "kenji": 25894,
    "panties": 12095,
    "steven": 7112,
    "kernel": 16293,
    "panthers": 12915,
    "coincidence": 16507,
    "recruit": 13024,
    "sigh": 6682,
    "baron": 5797,
    "complain": 17612,
    "revelations": 22191,
    "ur": 24471,
    "deliberately": 9969,
    "hate": 5223,
    "chancellor": 7306,
    "issues": 3314,
    "eminent": 14953,
    "lisbon": 11929,
    "identifying": 12151,
    "kidd": 25358,
    "nawab": 26543,
    "settlement": 4093,
    "##yal": 21095,
    "sprawled": 21212,
    "bigger": 7046,
    "dominion": 13738,
    "actors": 5889,
    "dissatisfaction": 28237,
    "atv": 29108,
    "humorous": 14742,
    "alberto": 12007,
    "faults": 19399,
    "國": 1800,
    "##lateral": 28277,
    "prevailed": 19914,
    "am": 2572,
    "norse": 15342,
    "without": 2302,
    "213": 19883,
    "bill": 3021,
    "##haya": 26115,
    "antigen": 28873,
    "receipt": 24306,
    "##tite": 23096,
    "magnetic": 8060,
    "##stown": 13731,
    "consumers": 10390,
    "##ids": 9821,
    "dartmouth": 16960,
    "mi": 2771,
    "high": 2152,
    "spores": 23763,
    "someone": 2619,
    "busted": 23142,
    "##zu": 9759,
    "examine": 11628,
    "##inn": 23111,
    "[unused759]": 764,
    "external": 6327,
    "flag": 5210,
    "outs": 21100,
    "##ウ": 30222,
    "##gins": 16529,
    "resulted": 4504,
    "react": 10509,
    "february": 2337,
    "skeptical": 18386,
    "humans": 4286,
    "179": 20311,
    "mein": 24182,
    "##tal": 9080,
    "staffordshire": 17052,
    "rodents": 28156,
    "##thed": 23816,
    "properties": 5144,
    "sonic": 12728,
    "appropriate": 6413,
    "1764": 21488,
    "repeal": 21825,
    "mitch": 11857,
    "1803": 12651,
    "elle": 15317,
    "cumberland": 12310,
    "berth": 17064,
    "rows": 10281,
    "burn": 6402,
    "##aker": 22626,
    "##iri": 15735,
    "##ters": 7747,
    "criticised": 10648,
    "meanwhile": 5564,
    "auxiliary": 9830,
    "register": 4236,
    "separates": 18600,
    "stretches": 14082,
    "##ous": 3560,
    "restrictive": 25986,
    "polk": 20819,
    "calf": 19134,
    "confirm": 12210,
    "##nent": 21576,
    "smooth": 5744,
    "piano": 3682,
    "grange": 18203,
    "[unused414]": 419,
    "johannesburg": 15976,
    "##ich": 7033,
    "austin": 5899,
    "affirmed": 19768,
    "subscribers": 17073,
    "actress": 3883,
    "sahib": 23513,
    "love": 2293,
    "‘": 1520,
    "##entes": 26933,
    "patiently": 19080,
    "marries": 19941,
    "張": 1844,
    "tea": 5572,
    "counsel": 9517,
    "planning": 4041,
    "just": 2074,
    "bartholomew": 19866,
    "states": 2163,
    "##lates": 26786,
    "##lvis": 28530,
    "##uration": 18924,
    "##nty": 29405,
    "bandwidth": 20235,
    "technology": 2974,
    "taxi": 10095,
    "lloyd": 6746,
    "##miya": 29312,
    "##ton": 2669,
    "slept": 7771,
    "戦": 1856,
    "bellevue": 26756,
    "##hide": 26100,
    "77": 6255,
    "jens": 25093,
    "penned": 17430,
    "heartbeat": 12251,
    "ם": 1254,
    "macon": 20025,
    "1711": 28455,
    "tour": 2778,
    "40th": 16541,
    "cameo": 12081,
    "disagree": 21090,
    "documented": 8832,
    "rankings": 10385,
    "rations": 29559,
    "revive": 17995,
    "open": 2330,
    "announced": 2623,
    "payroll": 26854,
    "##lub": 27959,
    "##ி": 29932,
    "[unused738]": 743,
    "unstable": 14480,
    "lamar": 19756,
    "warrant": 10943,
    "referred": 3615,
    "mutual": 8203,
    "source": 3120,
    "##rio": 9488,
    "parade": 7700,
    "kilometer": 20595,
    "##bia": 11607,
    "temptation": 17232,
    "ridges": 16386,
    "##shaft": 25679,
    "##m": 2213,
    "##veda": 28614,
    "[unused434]": 439,
    "garcia": 7439,
    "steamboat": 24897,
    "thriller": 10874,
    "undertake": 16617,
    "##lani": 21141,
    "[unused289]": 294,
    "gonzaga": 26840,
    "combined": 4117,
    "##essed": 23656,
    "futuristic": 28971,
    "win": 2663,
    "12": 2260,
    "operates": 5748,
    "[unused401]": 406,
    "life": 2166,
    "afar": 28978,
    "##eration": 16754,
    "dalton": 12413,
    "invasions": 23536,
    "wedge": 17632,
    "皇": 1917,
    "dashboard": 24923,
    "^": 1034,
    "1981": 3261,
    "crush": 10188,
    "mathematicians": 29374,
    "infinitely": 25773,
    "greater": 3618,
    "gun": 3282,
    "unmarked": 25779,
    "faculty": 4513,
    "rattled": 19252,
    "angels": 7048,
    "jerk": 12181,
    "turret": 14493,
    "striker": 11854,
    "assured": 8916,
    "ch": 10381,
    "inclined": 13050,
    "##dina": 18979,
    "smug": 20673,
    "digest": 17886,
    "##eck": 11012,
    "parisian": 24262,
    "perceive": 23084,
    "##uth": 14317,
    "hypothesis": 10744,
    "peyton": 17931,
    "polgara": 27041,
    "billion": 4551,
    "sarcasm": 20954,
    "shudder": 18261,
    "dedication": 12276,
    "ャ": 1728,
    "##mist": 23738,
    "rhymes": 24468,
    "calculus": 19276,
    "arousal": 18905,
    "instruction": 7899,
    "iqbal": 28111,
    "##ying": 14147,
    "dispatch": 18365,
    "pembroke": 21457,
    "##37": 24434,
    "darkness": 4768,
    "pure": 5760,
    "quantitative": 20155,
    "tko": 26537,
    "##ifiers": 28295,
    "notification": 26828,
    "rented": 12524,
    "consolidated": 10495,
    "topical": 25665,
    "craig": 7010,
    "consulate": 19972,
    "mckenna": 21749,
    "poppy": 19745,
    "331": 27533,
    "concord": 16557,
    "soared": 29127,
    "albert": 4789,
    "##uated": 16453,
    "inverted": 20037,
    "##ana": 5162,
    "仮": 1761,
    "squadrons": 11435,
    "dorothy": 9984,
    "1749": 24704,
    "##gence": 17905,
    "inventory": 12612,
    "mirrored": 22243,
    "##fb": 26337,
    "730": 28004,
    "amplitude": 22261,
    "harassed": 28186,
    "dentist": 24385,
    "wandering": 13071,
    "##ugh": 8953,
    "dealers": 16743,
    "eleven": 5408,
    "##oed": 29099,
    "linnaeus": 21610,
    "across": 2408,
    "232": 20666,
    "westfield": 26584,
    "sr": 5034,
    "##trick": 22881,
    "understand": 3305,
    "comments": 7928,
    "##tua": 26302,
    "deafening": 28840,
    "gloucester": 13370,
    "##hr": 8093,
    "babylonian": 26990,
    "1817": 12529,
    "palmer": 8809,
    "##ball": 7384,
    "vip": 21722,
    "max": 4098,
    "styles": 6782,
    "cooler": 14976,
    "##ific": 18513,
    "budge": 24981,
    "allotted": 23932,
    "rios": 25836,
    "nazareth": 27192,
    "##quin": 12519,
    "[unused881]": 886,
    "eyebrows": 8407,
    "lazy": 13971,
    "climates": 24734,
    "welterweight": 20882,
    "##abia": 29039,
    "bas": 19021,
    "damien": 12587,
    "liturgical": 19246,
    "newman": 10625,
    "vulcan": 25993,
    "begging": 12858,
    "officially": 3985,
    "##劉": 30303,
    "evaluating": 23208,
    "abdominal": 21419,
    "bassist": 9858,
    "efforts": 4073,
    "attracting": 15411,
    "ib": 21307,
    "rosie": 15820,
    "liszt": 26273,
    "##ents": 11187,
    "slater": 17916,
    "himself": 2370,
    "magnolia": 24659,
    "vincenzo": 24712,
    "crimean": 20516,
    "privacy": 9394,
    "authorities": 4614,
    "topology": 19587,
    "wei": 11417,
    "##pool": 16869,
    "女": 1815,
    "##tani": 17681,
    "[unused190]": 195,
    "##bee": 11306,
    "sharp": 4629,
    "##opsis": 22599,
    "challenging": 10368,
    "legislatures": 27977,
    "ligue": 18374,
    "pepsi": 27237,
    "colliery": 19462,
    "troy": 9553,
    "##wig": 16279,
    "dunlop": 27458,
    "switch": 6942,
    "colton": 21000,
    "##page": 13704,
    "pays": 12778,
    "william": 2520,
    "fading": 14059,
    "##reen": 28029,
    "golden": 3585,
    "sept": 17419,
    "earning": 7414,
    "##cats": 19588,
    "110": 7287,
    "andreas": 12460,
    "ipad": 25249,
    "louder": 10989,
    "weeping": 19750,
    "descent": 6934,
    "[unused270]": 275,
    "##chase": 26300,
    "frantically": 16460,
    "oro": 20298,
    "raleigh": 15842,
    "##very": 27900,
    "tend": 7166,
    "##standing": 24911,
    "##tile": 15286,
    "##aha": 23278,
    "##rno": 19139,
    "pop": 3769,
    "remains": 3464,
    "1823": 12522,
    "architect": 4944,
    "##mp": 8737,
    "##metry": 24327,
    "affiliated": 6989,
    "##rchy": 29389,
    "1863": 6899,
    "usa": 3915,
    "rpm": 11575,
    "##hre": 28362,
    "dancers": 10487,
    "defendants": 16362,
    "ס": 1258,
    "longest": 6493,
    "enable": 9585,
    "symbols": 9255,
    "liable": 20090,
    "geared": 23636,
    "mattress": 13342,
    "འ": 1433,
    "barren": 20225,
    "foo": 29379,
    "donnelly": 28317,
    "arturo": 20520,
    "protection": 3860,
    "trap": 8132,
    "wessex": 27886,
    "lessons": 8220,
    "fee": 7408,
    "coats": 15695,
    "bjp": 24954,
    "shadowed": 25843,
    "##nco": 15305,
    "[unused604]": 609,
    "hirsch": 28127,
    "averages": 20185,
    "meet": 3113,
    "obligation": 14987,
    "regardless": 7539,
    "underwood": 22751,
    "wallet": 15882,
    "brewster": 23009,
    "control": 2491,
    "lou": 10223,
    "prevent": 4652,
    "copper": 6967,
    "asleep": 6680,
    "##皇": 30443,
    "jackson": 4027,
    "relax": 9483,
    "seller": 14939,
    "stupidity": 28072,
    "succeeds": 21645,
    "facilitate": 10956,
    "foe": 22277,
    "inning": 12994,
    "scanned": 11728,
    "chocolate": 7967,
    "chips": 11772,
    "##iec": 23783,
    "##tive": 6024,
    "##ล": 29954,
    "lc": 29215,
    "hometown": 9627,
    "gora": 26967,
    "plasma": 12123,
    "headlines": 19377,
    "##inas": 15227,
    "pussy": 22418,
    "blown": 10676,
    "nominee": 9773,
    "taking": 2635,
    "panda": 25462,
    "admiralty": 14179,
    "founded": 2631,
    "surveillance": 9867,
    "hilltop": 25566,
    "tailed": 14578,
    "soft": 3730,
    "clarke": 8359,
    "impaired": 18234,
    "motel": 14901,
    "cornerstone": 23354,
    "##cana": 28621,
    "seeming": 16064,
    "宀": 1818,
    "##mada": 23574,
    "discovery": 5456,
    "enhancement": 22415,
    "##iting": 15402,
    "parentheses": 27393,
    "clubhouse": 22067,
    "[unused641]": 646,
    "iss": 26354,
    "axe": 12946,
    "drake": 7867,
    "decommissioned": 14394,
    "elevated": 8319,
    "gamma": 13091,
    "homogeneous": 24854,
    "##न": 29863,
    "1635": 27426,
    "clapton": 24705,
    "orange": 4589,
    "scanner": 26221,
    "##侍": 30291,
    "plug": 13354,
    "rent": 9278,
    "salad": 16521,
    "roast": 25043,
    "syndication": 26973,
    "##keepers": 24764,
    "biology": 7366,
    "##ষ": 29911,
    "550": 13274,
    "tal": 21368,
    "excitedly": 23885,
    "theirs": 17156,
    "dynamo": 17205,
    "##vinsky": 27704,
    "mexico": 3290,
    "shaft": 9093,
    "##美": 30461,
    "zhang": 9327,
    "valves": 17355,
    "amassed": 22151,
    "organizes": 22013,
    "allie": 16944,
    "crouched": 14275,
    "fibre": 20962,
    "pretoria": 25366,
    "gaul": 26522,
    "nobleman": 18487,
    "139": 16621,
    "motown": 22654,
    "##nts": 7666,
    "smallpox": 25765,
    "gravel": 11127,
    "##sily": 26863,
    "defeating": 6324,
    "morality": 16561,
    "cameras": 8629,
    "vu": 24728,
    "privatization": 23966,
    "nmi": 22484,
    "haitian": 21404,
    "guangzhou": 18693,
    "tesla": 26060,
    "clary": 13145,
    "sausage": 24165,
    "scents": 29254,
    "1995": 2786,
    "heaviest": 26858,
    "premises": 10345,
    "supplementary": 26215,
    "posterior": 15219,
    "suggest": 6592,
    "getting": 2893,
    "fingerprints": 27556,
    "regulatory": 10738,
    "underside": 17313,
    "hardly": 6684,
    "1724": 26423,
    "##river": 24352,
    "miniature": 12973,
    "polls": 14592,
    "##con": 8663,
    "toured": 7255,
    "zimbabwe": 11399,
    "encounters": 11340,
    "##扌": 30385,
    "chores": 27091,
    "cdc": 26629,
    "cdp": 8561,
    "tubular": 25147,
    "##rke": 25074,
    "sums": 20571,
    "##ctuated": 25638,
    "sergei": 14543,
    "armory": 24139,
    "sapphire": 21965,
    "urgency": 19353,
    "dominate": 16083,
    "##ovic": 9142,
    "dolly": 19958,
    "maneuvers": 23802,
    "marine": 3884,
    "postponed": 14475,
    "shipping": 7829,
    "hockey": 3873,
    "cheung": 22632,
    "uh": 7910,
    "feminism": 20050,
    "whitish": 16800,
    "##jun": 19792,
    "despair": 13905,
    "notation": 14869,
    "##あ": 30172,
    "honestly": 9826,
    "xiii": 15031,
    "cooper": 6201,
    "403": 28203,
    "γ": 1157,
    "##ways": 14035,
    "1917": 4585,
    "border": 3675,
    "pillow": 10005,
    "symphony": 6189,
    "##ⁱ": 30072,
    "comrades": 19033,
    "##pers": 7347,
    "238": 22030,
    "cocoa": 22940,
    "distances": 12103,
    "receptors": 13833,
    "shouts": 15701,
    "cove": 11821,
    "tub": 14366,
    "apparent": 6835,
    "hooks": 18008,
    "[unused264]": 269,
    "505": 28952,
    "[unused716]": 721,
    "##orne": 23846,
    "choked": 12444,
    "##bahn": 16052,
    "reapers": 27733,
    "##gard": 13444,
    "[unused970]": 975,
    "ট": 1359,
    "1859": 8165,
    "planting": 14685,
    "kingsley": 22819,
    "generators": 16937,
    "subsistence": 27667,
    "determines": 16463,
    "##ique": 7413,
    "guerrilla": 15722,
    "salzburg": 18369,
    "terraces": 25633,
    "whipped": 12428,
    "cater": 23488,
    "specialised": 17009,
    "hunters": 9624,
    "nottinghamshire": 20126,
    "[unused116]": 121,
    "spelling": 11379,
    "doin": 24341,
    "##itha": 26054,
    "emergence": 14053,
    "hopeless": 20625,
    "lgbt": 12010,
    "ornaments": 24005,
    "restriction": 16840,
    "socio": 17522,
    "mca": 22432,
    "pace": 6393,
    "performing": 4488,
    "##los": 10483,
    "##rogated": 26565,
    "##gg": 13871,
    "州": 1836,
    "hicks": 17221,
    "school": 2082,
    "leah": 14188,
    "[unused527]": 532,
    "casting": 9179,
    "[unused251]": 256,
    "tome": 21269,
    "##uer": 13094,
    "humiliation": 21171,
    "##rius": 13245,
    "##proof": 18907,
    "mendoza": 18021,
    "ole": 15589,
    "poverty": 5635,
    "stops": 6762,
    "twigs": 27964,
    "1925": 4849,
    "computed": 24806,
    "solemn": 19487,
    "confirms": 23283,
    "jon": 6285,
    "transform": 10938,
    "##gned": 19225,
    "aperture": 18892,
    "earned": 3687,
    "##ks": 5705,
    "mahmoud": 27278,
    "making": 2437,
    "northernmost": 22037,
    "twist": 9792,
    "1786": 17436,
    "needing": 11303,
    "qur": 23183,
    "hydrogen": 9732,
    "thong": 27468,
    "zagreb": 12974,
    "addressed": 8280,
    "east": 2264,
    "extra": 4469,
    "featuring": 3794,
    "holland": 7935,
    "[unused162]": 167,
    "abdullah": 14093,
    "inscriptions": 12920,
    "##placed": 22829,
    "##write": 26373,
    "sharma": 14654,
    "electronically": 28926,
    "##itic": 18291,
    "[unused932]": 937,
    "tractor": 16358,
    "##鈴": 30491,
    "reproduction": 14627,
    "questionable": 21068,
    "yawned": 27626,
    "tuba": 29242,
    "##，": 30515,
    "pointedly": 28713,
    "##rice": 17599,
    "##aday": 28039,
    "dem": 17183,
    "renaissance": 8028,
    "[unused733]": 738,
    "profiles": 17879,
    "##hala": 19531,
    "colonel": 4327,
    "conrad": 10931,
    "##ouring": 27897,
    "inaccessible": 29104,
    "oppressive": 28558,
    "dig": 10667,
    "ᶜ": 1511,
    "resolutions": 18853,
    "[unused272]": 277,
    "nikki": 14470,
    "able": 2583,
    "shock": 5213,
    "##llus": 20159,
    "sphere": 10336,
    "##he": 5369,
    "ッ": 1711,
    "coached": 8868,
    "summary": 12654,
    "inmate": 24467,
    "keeping": 4363,
    "brief": 4766,
    "##ritan": 25279,
    "lace": 12922,
    "##ح": 29820,
    "institution": 5145,
    "glaring": 16124,
    "frenchman": 26529,
    "coli": 27441,
    "union": 2586,
    "ncaa": 5803,
    "[unused325]": 330,
    "clapped": 18310,
    "patted": 11930,
    "c": 1039,
    "biker": 28988,
    "evelyn": 12903,
    "bilateral": 17758,
    "[unused666]": 671,
    "bronze": 4421,
    "defected": 26330,
    "brazilian": 6142,
    "calder": 19347,
    "[unused17]": 18,
    "prepared": 4810,
    "rushing": 8375,
    "##kushima": 24917,
    "sevens": 19463,
    "puppet": 13997,
    "helen": 6330,
    "##ध": 29862,
    "195": 17317,
    "frazier": 26551,
    "##ⁿ": 30080,
    "rider": 7945,
    "flavors": 26389,
    "autumn": 7114,
    "bu": 20934,
    "cherry": 9115,
    "sant": 15548,
    "timed": 22313,
    "bop": 29432,
    "ʒ": 1138,
    "##aba": 19736,
    "##া": 29914,
    "##oides": 25064,
    "calves": 28023,
    "werewolves": 18306,
    "##dae": 6858,
    "##itt": 12474,
    "252": 22898,
    "racecourse": 15948,
    "ernesto": 22428,
    "##llins": 26655,
    "360": 9475,
    "sensors": 13907,
    "curtis": 9195,
    "ා": 1408,
    "oldest": 4587,
    "scriptures": 22481,
    "years": 2086,
    "##op": 7361,
    "presidency": 8798,
    "harley": 13653,
    "##ulously": 21227,
    "embassy": 8408,
    "back": 2067,
    "dryly": 20825,
    "flexible": 12379,
    "##gue": 9077,
    "middle": 2690,
    "dimitri": 15953,
    "delicately": 28814,
    "ᵖ": 1504,
    "##or": 2953,
    "fits": 16142,
    "jul": 21650,
    "original": 2434,
    "manipulation": 16924,
    "fragmented": 26872,
    "##ப": 29924,
    "carthage": 21959,
    "ideas": 4784,
    "soloist": 16504,
    "##₈": 30084,
    "pump": 10216,
    "dictator": 21237,
    "##ζ": 29724,
    "##tu": 8525,
    "carpenter": 10533,
    "fins": 18564,
    "simultaneous": 17424,
    "ة": 1272,
    "refit": 27070,
    "之": 1749,
    "hooked": 13322,
    "whoever": 9444,
    "stallion": 19122,
    "dax": 27116,
    "nicholls": 27043,
    "duke": 3804,
    "##ratic": 23671,
    "reprised": 22598,
    "sessions": 6521,
    "named": 2315,
    "astronomers": 26357,
    "ferguson": 11262,
    "participate": 5589,
    "##lz": 23858,
    "gunther": 19384,
    "vittorio": 25914,
    "locating": 26339,
    "ᵢ": 1507,
    "bamboo": 15216,
    "enables": 12939,
    "disgusted": 17733,
    "evaluation": 9312,
    "eve": 6574,
    "##ied": 6340,
    "highlanders": 22672,
    "confessions": 21444,
    "turned": 2357,
    "generic": 12391,
    "wellness": 25860,
    "##ne": 2638,
    "tightened": 8371,
    "伊": 1762,
    "##mament": 28119,
    "demo": 9703,
    "##gc": 18195,
    "##jo": 5558,
    "sylvie": 26009,
    "nineteenth": 9137,
    "humanity": 8438,
    "siegel": 27996,
    "80s": 16002,
    "##白": 30441,
    "experts": 8519,
    "##sta": 9153,
    "felony": 24648,
    "kyle": 7648,
    "##raf": 27528,
    "womb": 26578,
    "smith": 3044,
    "##suke": 16867,
    "##om": 5358,
    "thumped": 28963,
    "rocket": 7596,
    "turkey": 4977,
    "traversed": 27797,
    "##º": 29662,
    "goat": 13555,
    "magnet": 16853,
    "##farlane": 23511,
    "##stones": 29423,
    "ceremonial": 12961,
    "##eri": 11124,
    "bryan": 8527,
    "manuscripts": 10485,
    "255": 20637,
    "belly": 7579,
    "##rian": 6862,
    "[unused953]": 958,
    "mt": 11047,
    "楊": 1883,
    "375": 18034,
    "salesman": 18968,
    "moist": 11052,
    "##ィ": 30220,
    "reliability": 15258,
    "inter": 6970,
    "offense": 10048,
    "##sk": 6711,
    "[unused58]": 59,
    "accustomed": 17730,
    "##unt": 16671,
    "sovereign": 11074,
    "##hiro": 18334,
    "albrecht": 25542,
    "all": 2035,
    "chennai": 12249,
    "barrio": 25676,
    "silicon": 13773,
    "##ս": 29781,
    "email": 10373,
    "middlesex": 13654,
    "nipples": 28124,
    "501": 16202,
    "davenport": 16273,
    "website": 4037,
    "##nosis": 27109,
    "barrow": 15355,
    "emotionally": 14868,
    "空": 1930,
    "##gal": 9692,
    "sheds": 25999,
    "stayed": 4370,
    "##tension": 29048,
    "[unused358]": 363,
    "immigrants": 7489,
    "dealing": 7149,
    "phd": 8065,
    "hawthorne": 23440,
    "[unused432]": 437,
    "gubernatorial": 19100,
    "##ago": 23692,
    "syed": 19740,
    "##st": 3367,
    "##タ": 30235,
    "lorraine": 13895,
    "wizards": 16657,
    "##〜": 30171,
    "##木": 30401,
    "os": 9808,
    "selecting": 17739,
    "yerevan": 23383,
    "academie": 19669,
    "rings": 7635,
    "swindon": 22350,
    "##eptive": 22048,
    "nervous": 6091,
    "tends": 12102,
    "##nbc": 28957,
    "jamaican": 17851,
    "rebellion": 7417,
    "disputed": 11621,
    "monsters": 9219,
    "relic": 24933,
    "##suka": 26544,
    "stroked": 11699,
    "transport": 3665,
    "##ate": 3686,
    "waltz": 17569,
    "1983": 3172,
    "collects": 17427,
    "cote": 17155,
    "[unused735]": 740,
    "deserves": 17210,
    "roxy": 23682,
    "##ᵖ": 30040,
    "prematurely": 28179,
    "rican": 13641,
    "willow": 11940,
    "enjoying": 9107,
    "await": 26751,
    "cambrian": 29228,
    "armand": 20371,
    "lighter": 9442,
    "likeness": 28275,
    "verona": 20197,
    "abc": 5925,
    "albania": 10407,
    "estimates": 10035,
    "prophet": 12168,
    "supervisor": 12366,
    "failure": 4945,
    "counterpart": 13637,
    "##icon": 28524,
    "revue": 17480,
    "advance": 5083,
    "warmed": 17336,
    "##sc": 11020,
    "[unused370]": 375,
    "##imo": 16339,
    "skepticism": 27936,
    "royalty": 16664,
    "##y": 2100,
    "##ﬁ": 30510,
    "whistling": 24350,
    "spaniards": 20999,
    "executives": 12706,
    "rotating": 13618,
    "burr": 22715,
    "fates": 26417,
    "und": 6151,
    "##州": 30362,
    "[unused975]": 980,
    "[unused28]": 29,
    "hillside": 18573,
    "bauer": 17838,
    "anglia": 24217,
    "##ira": 7895,
    "amusement": 9778,
    "##metric": 12589,
    "##ך": 29797,
    "উ": 1350,
    "[unused691]": 696,
    "ghana": 9701,
    "mud": 8494,
    "1795": 13397,
    "[unused263]": 268,
    "longing": 15752,
    "notes": 3964,
    "contentious": 29308,
    "escaped": 6376,
    "bankers": 25375,
    "bernhard": 21432,
    "##ines": 10586,
    "##yam": 14852,
    "283": 25504,
    "territory": 3700,
    "pun": 26136,
    "arrangement": 6512,
    "##子": 30342,
    "piled": 17835,
    "##eem": 21564,
    "suspect": 8343,
    "dail": 26181,
    "vowels": 15260,
    "1b": 26314,
    "commercial": 3293,
    "younger": 3920,
    "mor": 22822,
    "america": 2637,
    "##ᆸ": 30024,
    "padma": 23731,
    "sorcerer": 23324,
    "taliban": 16597,
    "inserted": 12889,
    "##llum": 20845,
    "岡": 1832,
    "ligand": 27854,
    "##linger": 23101,
    "smelled": 9557,
    "[unused884]": 889,
    "lumpur": 17761,
    "publisher": 6674,
    "lock": 5843,
    "##dak": 23597,
    "emma": 5616,
    "clusters": 12906,
    "siege": 6859,
    "priory": 14284,
    "chairperson": 19072,
    "sufficient": 7182,
    "[unused498]": 503,
    "rehab": 24497,
    "crates": 27619,
    "glory": 8294,
    "thrust": 7400,
    "199": 20713,
    "nodding": 11863,
    "payload": 18093,
    "trying": 2667,
    "northwards": 27592,
    "##isms": 22556,
    "[unused200]": 205,
    "bailey": 8925,
    "hurry": 9241,
    "heading": 5825,
    "denomination": 18683,
    "upland": 25770,
    "evening": 3944,
    "##chy": 11714,
    "[unused979]": 984,
    "ひ": 1673,
    "exiting": 22371,
    "corporal": 14265,
    "##ding": 4667,
    "[unused167]": 172,
    "rev": 7065,
    "baffled": 29088,
    "stored": 8250,
    "portage": 25140,
    "freeman": 11462,
    "##itia": 29050,
    "[unused424]": 429,
    "connacht": 27062,
    "reagan": 11531,
    "strasbourg": 18104,
    "abrams": 23063,
    "you": 2017,
    "##vres": 24790,
    "tenderly": 26596,
    "attachment": 14449,
    "lilly": 14765,
    "departing": 15971,
    "speedway": 10688,
    "##net": 7159,
    "unite": 15908,
    "nur": 27617,
    "played": 2209,
    "##49": 26224,
    "ш": 1203,
    "oriented": 8048,
    "##ng": 3070,
    "方": 1863,
    "mir": 14719,
    "pumpkin": 25730,
    "indochina": 27053,
    "vogel": 27063,
    "##anies": 28064,
    "autobiography": 10828,
    "brightly": 14224,
    "dome": 8514,
    "filtered": 21839,
    "keyboardist": 20173,
    "penultimate": 25512,
    "worship": 7425,
    "lending": 18435,
    "55th": 29075,
    "##ometer": 18721,
    "assuming": 10262,
    "snail": 10879,
    "183": 18677,
    "flutes": 28453,
    "##inated": 15833,
    "blind": 6397,
    "##ensburg": 28812,
    "dominant": 7444,
    "feather": 15550,
    "saxons": 28267,
    "cameroon": 13841,
    "leone": 13363,
    "##enko": 17868,
    "##utter": 26878,
    "##uled": 18696,
    "##rative": 18514,
    "towing": 28379,
    "gladys": 22386,
    "[unused71]": 72,
    "devlin": 24389,
    "della": 8611,
    "hurried": 9520,
    "brink": 20911,
    "1743": 25615,
    "maintains": 9319,
    "lass": 27333,
    "try": 3046,
    "woman": 2450,
    "colonists": 15526,
    "##quest": 15500,
    "rendered": 10155,
    "physically": 8186,
    "derived": 5173,
    "mai": 14736,
    "[unused478]": 483,
    "trainers": 21992,
    "##weiler": 22384,
    "latvia": 12429,
    "[unused985]": 990,
    "springsteen": 26002,
    "gazing": 16448,
    "н": 1192,
    "dusk": 18406,
    "astronomer": 15211,
    "drifted": 10070,
    "denny": 14465,
    "walks": 7365,
    "done": 2589,
    "muscles": 6650,
    "স": 1376,
    "magnate": 27470,
    "##wal": 13476,
    "##ˡ": 29716,
    "च": 1318,
    "yan": 13619,
    "borders": 6645,
    "heiress": 20020,
    "dennis": 6877,
    "coincidentally": 27542,
    "appoint": 16823,
    "253": 23254,
    "##och": 11663,
    "##ⱼ": 30157,
    "thompson": 5953,
    "##hell": 18223,
    "##kara": 16566,
    "##lers": 12910,
    "prodigy": 28334,
    "fay": 23201,
    "dali": 29095,
    "rich": 4138,
    "bc": 4647,
    "byrne": 14928,
    "populous": 20151,
    "returning": 4192,
    "##lo": 4135,
    "literary": 4706,
    "walled": 17692,
    "zebra": 29145,
    "##uve": 22909,
    "alexandra": 10481,
    "⊆": 1611,
    "alfred": 6152,
    "leicester": 11258,
    "funnel": 25102,
    "sinking": 10186,
    "gareth": 20243,
    "##usia": 24118,
    "alto": 10766,
    "thump": 21324,
    "vintage": 13528,
    "zealand": 3414,
    "salisbury": 13817,
    "cursing": 19752,
    "ii": 2462,
    "cas": 25222,
    "[unused613]": 618,
    "termed": 12061,
    "grounded": 16764,
    "ama": 25933,
    "##郎": 30484,
    "##hra": 13492,
    "bony": 22678,
    "compartment": 15273,
    "+": 1009,
    "##region": 23784,
    "refined": 15514,
    "##↦": 30116,
    "duane": 27319,
    "##nti": 16778,
    "especially": 2926,
    "invading": 17657,
    "##mal": 9067,
    "##rites": 28884,
    "##roller": 26611,
    "[unused818]": 823,
    "##edge": 24225,
    "expectations": 10908,
    "[unused779]": 784,
    "##jan": 8405,
    "consultant": 8930,
    "evenings": 16241,
    "popular": 2759,
    "recounted": 22906,
    "communication": 4807,
    "encore": 19493,
    "##bound": 15494,
    "excess": 9987,
    "せ": 1659,
    "marjorie": 21562,
    "bro": 22953,
    "hurts": 13403,
    "##章": 30458,
    "dude": 12043,
    "dorothea": 24052,
    "⁷": 1541,
    "1840": 8905,
    "residual": 21961,
    "simplicity": 17839,
    "##ience": 13684,
    "##む": 30205,
    "[unused763]": 768,
    "punishments": 29115,
    "spear": 12341,
    "nurses": 11500,
    "ratio": 6463,
    "##illa": 9386,
    "sprayed": 25401,
    "##aith": 22465,
    "indian": 2796,
    "haryana": 23261,
    "sequences": 10071,
    "sequencing": 24558,
    "anytime": 15933,
    "invisible": 8841,
    "straight": 3442,
    "##ikh": 28209,
    "nascar": 11838,
    "platt": 28005,
    "television": 2547,
    "lipstick": 22359,
    "merged": 5314,
    "punishment": 7750,
    "reaction": 4668,
    "upbringing": 24615,
    "maddy": 20789,
    "marxism": 27255,
    "mayo": 14415,
    "ο": 1169,
    "thatcher": 21127,
    "cured": 21391,
    "##ord": 8551,
    "residence": 5039,
    "[unused145]": 150,
    "tonnes": 11000,
    "nicknamed": 9919,
    "hodgson": 26107,
    "##tidae": 21861,
    "75th": 25092,
    "read": 3191,
    "tubes": 10868,
    "disturbing": 14888,
    "tipperary": 17333,
    "humboldt": 19249,
    "patio": 19404,
    "praises": 27128,
    "eat": 4521,
    "##rica": 14735,
    "cocktail": 18901,
    "solvent": 23735,
    "zoe": 11199,
    "thunder": 8505,
    "believers": 20373,
    "tank": 4951,
    "##war": 9028,
    "bengal": 8191,
    "make": 2191,
    "meadow": 13244,
    "貝": 1952,
    "proceedings": 8931,
    "valve": 10764,
    "##caster": 25490,
    "##手": 30384,
    "atoll": 22292,
    "##heart": 22375,
    "indirect": 14958,
    "estates": 8707,
    "observers": 14009,
    "survival": 7691,
    "266": 25162,
    "hayward": 21506,
    "helix": 25743,
    "unclear": 10599,
    "hilarious": 26316,
    "stalled": 20659,
    "alligator": 28833,
    "westward": 15165,
    "although": 2348,
    "##寺": 30353,
    "overdose": 26641,
    "##die": 10265,
    "##nah": 15272,
    "##eville": 21187,
    "suez": 21974,
    "θ": 1162,
    "redding": 26687,
    "autonomy": 12645,
    "memorial": 3986,
    "kills": 8563,
    "cavalier": 28778,
    "elaine": 15263,
    "groaning": 24781,
    "malawi": 18137,
    "amateur": 5515,
    "shetland": 25552,
    "simulate": 26633,
    "weird": 6881,
    "radcliffe": 22603,
    "downstream": 13248,
    "dietary": 23444,
    "dvd": 4966,
    "scripted": 22892,
    "percussion": 6333,
    "prefers": 19233,
    "darting": 24567,
    "##via": 9035,
    "amour": 21518,
    "##am": 3286,
    "drury": 25663,
    "res": 24501,
    "##uttered": 23128,
    "[unused281]": 286,
    "##egorical": 27203,
    "vocational": 13099,
    "municipalities": 7602,
    "resolved": 10395,
    "##grants": 27444,
    "##oris": 21239,
    "lizzie": 15860,
    "friday": 5958,
    "towering": 20314,
    "usl": 22448,
    "extraction": 14676,
    "ʐ": 1136,
    "彳": 1845,
    "banana": 15212,
    "dahl": 27934,
    "frank": 3581,
    "##gill": 19791,
    "inequality": 16440,
    "##dant": 28210,
    "[unused531]": 536,
    "issue": 3277,
    "sewer": 22365,
    "windows": 3645,
    "##bery": 22509,
    "condition": 4650,
    "handled": 8971,
    "shiver": 13277,
    "##tro": 13181,
    "##lova": 24221,
    "##∩": 30131,
    "##xia": 14787,
    "safari": 23591,
    "yell": 14315,
    "五": 1753,
    "african": 3060,
    "finn": 9303,
    "1944": 3646,
    "worcestershire": 20218,
    "missing": 4394,
    "turin": 13667,
    "airship": 27636,
    "sighing": 19381,
    "124": 13412,
    "[unused100]": 105,
    "[unused25]": 26,
    "arguing": 9177,
    "##ま": 30203,
    "assessing": 20077,
    "cheering": 24867,
    "managerial": 24465,
    "preface": 18443,
    "awarded": 3018,
    "reportedly": 7283,
    "μ": 1166,
    "[unused653]": 658,
    "ferries": 20157,
    "rural": 3541,
    "males": 3767,
    "ticket": 7281,
    "psychiatric": 13691,
    "60th": 20928,
    "finalists": 13527,
    "devotees": 22707,
    "releases": 7085,
    "retire": 11036,
    "shaved": 20665,
    "musician": 5455,
    "##date": 13701,
    "的": 1916,
    "##itative": 29293,
    "##ი": 29981,
    "senior": 3026,
    "##ier": 3771,
    "retaliation": 18695,
    "founders": 8759,
    "sweetie": 22872,
    "loco": 28046,
    "##ert": 8743,
    "[unused45]": 46,
    "galaxies": 21706,
    "bayer": 26367,
    "protagonist": 10191,
    "elastic": 21274,
    "scandinavia": 20612,
    "259": 25191,
    "piazza": 22463,
    "rector": 10935,
    "chapel": 4970,
    "into": 2046,
    "private": 2797,
    "assets": 7045,
    "caroline": 7981,
    "ferns": 25715,
    "somebody": 8307,
    "##uru": 14129,
    "je": 15333,
    "lectured": 19206,
    "field": 2492,
    "switched": 7237,
    "～": 1995,
    "##ف": 29833,
    "mcmillan": 27436,
    "ryder": 11731,
    "mediated": 19872,
    "replica": 15059,
    "quarter": 4284,
    "squash": 18794,
    "phoebe": 18188,
    "vaccine": 17404,
    "civilians": 9272,
    "piers": 16067,
    "##lls": 12718,
    "abused": 16999,
    "injury": 4544,
    "subdivisions": 22095,
    "出": 1774,
    "sim": 21934,
    "##eva": 13331,
    "drugs": 5850,
    "amused": 11770,
    "infringement": 20701,
    "continents": 17846,
    "deaths": 6677,
    "advisory": 7319,
    "depths": 11143,
    "##mber": 21784,
    "internationals": 27340,
    "preventing": 10723,
    "roadway": 18799,
    "basin": 6403,
    "[unused709]": 714,
    "[unused99]": 104,
    "macy": 20914,
    "[unused353]": 358,
    "father": 2269,
    "nana": 17810,
    "robotics": 21331,
    "##arable": 25236,
    "##alo": 23067,
    "面": 1976,
    "salt": 5474,
    "[unused421]": 426,
    "appearance": 3311,
    "preparatory": 13485,
    "[unused778]": 783,
    "atlanta": 5865,
    "##ect": 22471,
    "duluth": 28218,
    "rotten": 11083,
    "##3": 2509,
    "advice": 6040,
    "aired": 4836,
    "##nh": 25311,
    "gilmore": 22999,
    "patterson": 12424,
    "peppers": 23582,
    "exhibitions": 8596,
    "##ching": 8450,
    "age": 2287,
    "sheets": 8697,
    "[unused468]": 473,
    "similarities": 12319,
    "##omp": 25377,
    "passage": 6019,
    "##inga": 28234,
    "##ently": 28198,
    "harlow": 22545,
    "archaeologists": 19254,
    "cap": 6178,
    "announcements": 25674,
    "exciting": 10990,
    "washington": 2899,
    "wellington": 8409,
    "chronicle": 9519,
    "[unused624]": 629,
    "[unused254]": 259,
    "earn": 7796,
    "declan": 16494,
    "grapes": 16575,
    "multiplayer": 17762,
    "odyssey": 18735,
    "fridge": 16716,
    "textile": 12437,
    "1964": 3546,
    "##orn": 9691,
    "##rred": 20529,
    "diocesan": 18680,
    "hutchinson": 17165,
    "sneaking": 20727,
    "supply": 4425,
    "paddle": 20890,
    "fiance": 19154,
    "√": 1600,
    "deprivation": 29516,
    "##rained": 27361,
    "##uis": 27020,
    "chesapeake": 20867,
    "##due": 20041,
    "hostess": 22566,
    "hinduism": 19632,
    "splitting": 14541,
    "teens": 13496,
    "##thes": 24138,
    "predatory": 21659,
    "##tc": 13535,
    "##dre": 16200,
    "prices": 7597,
    "289": 27054,
    "choirs": 24743,
    "##00": 8889,
    "crisp": 15594,
    "milky": 21582,
    "163": 17867,
    "consultative": 28581,
    "##tier": 17579,
    "##ese": 6810,
    "8": 1022,
    "cw": 19296,
    "insides": 19008,
    "##ryn": 18143,
    "frustrating": 25198,
    "crowe": 25657,
    "##user": 20330,
    "##rish": 18774,
    "welded": 29014,
    "chamber": 4574,
    "lemon": 14380,
    "##ities": 6447,
    "find": 2424,
    "criticized": 6367,
    "physiological": 19389,
    "selects": 27034,
    "##zes": 11254,
    "mage": 17454,
    "promotional": 10319,
    "##amo": 22591,
    "masters": 5972,
    "##loe": 26846,
    "1747": 24522,
    "manufacturers": 8712,
    "score": 3556,
    "nero": 19212,
    "cromwell": 16759,
    "continual": 27222,
    "actively": 8851,
    "christ": 4828,
    "堂": 1805,
    "airspace": 29357,
    "##sca": 15782,
    "##inge": 23496,
    "shafts": 20542,
    "[unused305]": 310,
    "rifle": 5883,
    "102": 9402,
    "152": 15017,
    "##tance": 26897,
    "##ucci": 16835,
    "##rti": 28228,
    "ie": 29464,
    "kelsey": 21004,
    "##stered": 24167,
    "竹": 1933,
    "luigi": 15153,
    "publishes": 12466,
    "helicopter": 7739,
    "##民": 30418,
    "controversies": 25962,
    "engineering": 3330,
    "policing": 21107,
    "restricted": 7775,
    "##olate": 19425,
    "##boy": 11097,
    "##ries": 5134,
    "##ido": 13820,
    "downstairs": 10025,
    "gabrielle": 16988,
    "edmund": 9493,
    "earls": 27371,
    "##typical": 27086,
    "shone": 14707,
    "zhejiang": 26805,
    "##face": 12172,
    "##ー": 30265,
    "athletes": 7576,
    "milwaukee": 9184,
    "hooper": 23717,
    "incomes": 29373,
    "[unused756]": 761,
    "vinegar": 29387,
    "mainland": 8240,
    "slide": 7358,
    "majesty": 9995,
    "一": 1740,
    "##bham": 25522,
    "[unused961]": 966,
    "shirts": 11344,
    "strapped": 18019,
    "synthesized": 23572,
    "##rith": 24292,
    "●": 1619,
    "##onic": 12356,
    "ನ": 1400,
    "culminating": 16979,
    "salsa": 26509,
    "##ns": 3619,
    "ts": 24529,
    "##on": 2239,
    "champ": 24782,
    "related": 3141,
    "tones": 12623,
    "х": 1200,
    "francis": 4557,
    "appeared": 2596,
    "bell": 4330,
    "bombing": 8647,
    "tugged": 10621,
    "##cter": 21162,
    "##yna": 18279,
    "1986": 3069,
    "##uca": 18100,
    "conceptual": 17158,
    "a1": 17350,
    "anymore": 4902,
    "representative": 4387,
    "##orno": 26295,
    "[unused712]": 717,
    "aus": 17151,
    "destiny": 10461,
    "strait": 11195,
    "scrambled": 13501,
    "severely": 8949,
    "decades": 5109,
    "tokyo": 5522,
    "1951": 4131,
    "##tl": 19646,
    "98": 5818,
    "fi": 10882,
    "course": 2607,
    "canyon": 8399,
    "##ivated": 21967,
    "tension": 6980,
    "##church": 22743,
    "donated": 6955,
    "##ד": 29791,
    "ramon": 12716,
    "trout": 13452,
    "magistrate": 14351,
    "oath": 11292,
    "scientist": 7155,
    "lal": 21348,
    "hell": 3109,
    "radicals": 23618,
    "malvern": 28082,
    "classification": 5579,
    "##ragan": 28905,
    "woolf": 29572,
    "howell": 18473,
    "presenter": 10044,
    "communist": 4750,
    "devastated": 13879,
    "amongst": 5921,
    "underwater": 11564,
    "##tter": 12079,
    "primaries": 27419,
    "singh": 5960,
    "quintet": 18109,
    "haired": 10681,
    "devin": 23601,
    "##ser": 8043,
    "berger": 16758,
    "goodwin": 19928,
    "deter": 28283,
    "analytics": 25095,
    "eels": 29317,
    "verde": 16184,
    "angular": 16108,
    "##vati": 20203,
    "pornography": 19378,
    "trembled": 14823,
    "##ா": 29931,
    "##幸": 30367,
    "struggling": 8084,
    "olympics": 3783,
    "iona": 22347,
    "##義": 30462,
    "beijing": 7211,
    "orgasm": 13892,
    "baptist": 7550,
    "situation": 3663,
    "镇": 1966,
    "##tie": 9515,
    "decidedly": 27873,
    "##cta": 25572,
    "louise": 8227,
    "56": 5179,
    "differentiation": 20582,
    "behaviour": 9164,
    "##治": 30426,
    "mcdonnell": 23149,
    "[unused503]": 508,
    "[unused959]": 964,
    "bookstore": 21785,
    "lexie": 24123,
    "##umi": 12717,
    "196": 20035,
    "brigham": 22727,
    "archived": 9749,
    "permanently": 8642,
    "whisper": 7204,
    "diane": 12082,
    "##ulton": 22145,
    "pamphlet": 19899,
    "##xie": 16898,
    "fluctuations": 28892,
    "##nad": 25389,
    "##gor": 20255,
    "dexter": 14375,
    "annexation": 18985,
    "committed": 5462,
    "mirror": 5259,
    "wendell": 24526,
    "##inae": 16414,
    "directive": 16449,
    "discourage": 28085,
    "apprehension": 25809,
    "##pi": 8197,
    "[unused328]": 333,
    "physical": 3558,
    "straw": 13137,
    "floppy": 28491,
    "grin": 5861,
    "##gers": 15776,
    "##dicate": 16467,
    "kids": 4268,
    "strategic": 6143,
    "京": 1755,
    "ன": 1387,
    "##pour": 27757,
    "##torium": 24390,
    "1653": 29309,
    "antonio": 4980,
    "estranged": 24211,
    "##olin": 18861,
    "21": 2538,
    "wired": 17502,
    "speeds": 10898,
    "grace": 4519,
    "voodoo": 21768,
    "ltd": 5183,
    "managed": 3266,
    "wilkes": 20635,
    "tanya": 19956,
    "accuse": 26960,
    "domestically": 27143,
    "refusal": 13948,
    "leaks": 29324,
    "immaculate": 19532,
    "praising": 15838,
    "beforehand": 25828,
    "##dern": 25888,
    "flows": 6223,
    "海": 1902,
    "distraught": 25348,
    "nearby": 3518,
    "##ifying": 11787,
    "supporter": 10129,
    "jenkins": 11098,
    "47": 4700,
    "provider": 10802,
    "arabs": 14560,
    "##works": 9316,
    "##tern": 16451,
    "cha": 15775,
    "##pins": 27915,
    "penny": 10647,
    "[unused388]": 393,
    "killings": 16431,
    "seismic": 22630,
    "blinding": 19709,
    "colts": 14390,
    "##¥": 29648,
    "##phonic": 27385,
    "##ね": 30196,
    "##ede": 14728,
    "freelance": 15919,
    "##ores": 16610,
    "1975": 3339,
    "lego": 23853,
    "nils": 27282,
    "sonata": 14681,
    "ি": 1379,
    "roaming": 24430,
    "elton": 19127,
    "arrive": 7180,
    "hanoi": 24809,
    "bolts": 19947,
    "hugely": 27564,
    "beds": 9705,
    "supervision": 10429,
    "##pl": 24759,
    "costly": 17047,
    "journalists": 8845,
    "ɡ": 1116,
    "kissed": 4782,
    "celaena": 29252,
    "teachers": 5089,
    "ever": 2412,
    "##35": 19481,
    "##ץ": 29808,
    "##baum": 14898,
    "ridden": 15230,
    "##yeh": 25673,
    "##ས": 29972,
    "outbreak": 8293,
    "dunbar": 23034,
    "litre": 16812,
    "grips": 24758,
    "handbook": 14812,
    "georgetown": 12982,
    "pioneered": 16193,
    "franks": 21310,
    "soap": 7815,
    "hotter": 22302,
    "##rgeon": 28242,
    "highlights": 11637,
    "[unused435]": 440,
    "##gata": 26589,
    "imagine": 5674,
    "libertarian": 19297,
    "acronym": 20137,
    "del": 3972,
    "easily": 4089,
    "par": 11968,
    "beech": 21760,
    "fitz": 27706,
    "interruption": 24191,
    "vamp": 20279,
    "themed": 11773,
    "breadth": 25291,
    "cunning": 23626,
    "armoured": 11104,
    "retain": 9279,
    "ª": 1076,
    "test": 3231,
    "interceptor": 24727,
    "sit": 4133,
    "##vert": 16874,
    "protege": 28567,
    "##neuve": 28104,
    "##ori": 10050,
    "[unused649]": 654,
    "##lines": 12735,
    "##active": 19620,
    "1626": 28818,
    "contemporary": 3824,
    "grenada": 29153,
    "endowment": 15108,
    "hawker": 23937,
    "leto": 24543,
    "##sz": 17112,
    "##worth": 5172,
    "abraham": 8181,
    "citizenship": 9068,
    "clarity": 15563,
    "faint": 8143,
    "lesbian": 11690,
    "inspiring": 18988,
    "cessna": 27664,
    "subsequent": 4745,
    "[unused81]": 82,
    "regal": 21279,
    "##uding": 24539,
    "atm": 27218,
    "##nate": 12556,
    "dh": 28144,
    "quartermaster": 24688,
    "restore": 9239,
    "plan": 2933,
    "colchester": 20115,
    "totaled": 23596,
    "click": 11562,
    "elect": 11322,
    "militias": 29271,
    "rate": 3446,
    "cart": 11122,
    "connected": 4198,
    "decides": 7288,
    "dictionary": 9206,
    "##ksha": 28132,
    "additionally": 5678,
    "##jic": 25008,
    "batch": 14108,
    "##₅": 30081,
    "nfl": 5088,
    "orchards": 22976,
    "vanish": 25887,
    "##hony": 27629,
    "mined": 21846,
    "tensed": 15225,
    "dreaming": 12802,
    "##ggles": 24989,
    "##名": 30321,
    "##mate": 8585,
    "[unused221]": 226,
    "dormitory": 21538,
    "kanye": 29270,
    "820": 26667,
    "celebrating": 12964,
    "kunst": 28145,
    "relate": 14396,
    "ᵗ": 1505,
    "[unused426]": 431,
    "cbe": 15852,
    "coven": 25248,
    "devon": 7614,
    "leukemia": 25468,
    "##rail": 15118,
    "bunny": 16291,
    "kickoff": 25233,
    "[unused164]": 169,
    "dialogue": 7982,
    "##忠": 30378,
    "norwood": 22804,
    "##cise": 18380,
    "invoked": 24959,
    "ত": 1362,
    "385": 24429,
    "integrity": 11109,
    "routine": 9410,
    "andre": 7213,
    "bundles": 26825,
    "therapeutic": 17261,
    "##lic": 10415,
    "excavated": 15199,
    "scooted": 24289,
    "laval": 26205,
    "[unused593]": 598,
    "contains": 3397,
    "relational": 28771,
    "fling": 27655,
    "targeted": 9416,
    "tired": 5458,
    "toned": 27604,
    "wolverhampton": 20085,
    "grimm": 24287,
    "fl": 13109,
    "秀": 1928,
    "lively": 17133,
    "yellowstone": 29231,
    "vinci": 23765,
    "elisa": 29490,
    "jokes": 13198,
    "hong": 4291,
    "maintaining": 8498,
    "madly": 29179,
    "victorious": 13846,
    "##nberg": 11144,
    "crime": 4126,
    "pitches": 19299,
    "##oured": 16777,
    "##breaker": 21204,
    "dairy": 11825,
    "fountains": 23497,
    "pilgrim": 21214,
    "民": 1892,
    "##ment": 3672,
    "kappa": 16000,
    "1835": 10150,
    "intersecting": 27294,
    "xinjiang": 25904,
    "carey": 11782,
    "moi": 25175,
    "##icient": 20132,
    "[unused266]": 271,
    "decreed": 28447,
    "crept": 13147,
    "##umble": 26607,
    "cable": 5830,
    "blocks": 5991,
    "ca": 6187,
    "ignored": 6439,
    "poly": 26572,
    "wielding": 26974,
    "##uck": 12722,
    "shining": 9716,
    "kgb": 25467,
    "##ods": 20620,
    "##dust": 24220,
    "crumpled": 19814,
    "deutsche": 11605,
    "mesa": 15797,
    "changed": 2904,
    "yang": 8675,
    "perch": 21836,
    "bump": 16906,
    "shirt": 3797,
    "anchorage": 21086,
    "slipping": 11426,
    "[unused393]": 398,
    "deliveries": 23534,
    "professionally": 12145,
    "##ioned": 19798,
    "##fight": 20450,
    "densely": 19441,
    "ride": 4536,
    "belgarath": 21256,
    "healed": 15027,
    "sediment": 19671,
    "chicken": 7975,
    "[unused459]": 464,
    "hernandez": 13688,
    "monetary": 12194,
    "financed": 13790,
    "##dner": 28001,
    "eyelashes": 25150,
    "universite": 22176,
    "sherwood": 19427,
    "collecting": 9334,
    "chase": 5252,
    "grades": 7022,
    "##head": 4974,
    "carving": 18441,
    "flemish": 15427,
    "ribbons": 22688,
    "sliced": 15920,
    "construct": 9570,
    "interceptions": 18387,
    "landscape": 5957,
    "foreman": 18031,
    "bare": 6436,
    "drain": 12475,
    "proprietary": 16350,
    "dolphins": 13600,
    "##ᵒ": 30039,
    "retailers": 16629,
    "##rc": 11890,
    "##how": 14406,
    "cain": 11557,
    "abnormal": 19470,
    "comedies": 22092,
    "parasites": 23996,
    "leland": 27134,
    "parramatta": 22820,
    "##fp": 22540,
    "scandinavian": 17660,
    "##finder": 23695,
    "530": 23523,
    "tad": 18819,
    "methane": 24481,
    "argent": 23157,
    "bulging": 27569,
    "candace": 22905,
    "gran": 12604,
    "capitol": 9424,
    "##kill": 15872,
    "cracked": 9630,
    "murderer": 13422,
    "passageway": 27336,
    "fly": 4875,
    "macedonian": 13037,
    "dong": 11947,
    "unlocked": 14058,
    "##¤": 29647,
    "##夫": 30339,
    "camp": 3409,
    "daniela": 28541,
    "playback": 18245,
    "varying": 9671,
    "button": 6462,
    "infectious": 16514,
    "##yed": 20821,
    "acquaintances": 29409,
    "assessed": 14155,
    "##lka": 26518,
    "adolph": 28564,
    "[unused960]": 965,
    "521": 26963,
    "pinnacle": 26007,
    "subscription": 15002,
    "therefore": 3568,
    "identities": 15702,
    "pudding": 29593,
    "realises": 25924,
    "##kr": 21638,
    "##oon": 7828,
    "bonds": 9547,
    "brunette": 27261,
    "freak": 11576,
    "moreno": 17921,
    "stevens": 8799,
    "fished": 26281,
    "herb": 12810,
    "particular": 3327,
    "receives": 8267,
    "##avs": 29553,
    "laptop": 12191,
    "regression": 26237,
    "ז": 1247,
    "heather": 9533,
    "נ": 1257,
    "##kled": 19859,
    "blog": 9927,
    "##hosh": 26643,
    "grandparents": 14472,
    "moses": 9952,
    "provoke": 27895,
    "roaring": 17197,
    "signaling": 14828,
    "require": 5478,
    "ן": 1256,
    "snapping": 15790,
    "##orestation": 25794,
    "chargers": 18649,
    "##por": 17822,
    "familiarity": 24666,
    "proportional": 14267,
    "users": 5198,
    "paulo": 9094,
    "##bc": 9818,
    "transmitting": 23820,
    "[unused106]": 111,
    "##80": 17914,
    "##bler": 16213,
    "carrying": 4755,
    "weapons": 4255,
    "arrogance": 24416,
    "followers": 8771,
    "mbc": 27262,
    "##∞": 30128,
    "commemorating": 20646,
    "databases": 17881,
    "not": 2025,
    "[unused450]": 455,
    "gravitational": 19790,
    "assignments": 14799,
    "clinched": 18311,
    "##&": 29617,
    "ng": 12835,
    "respondents": 25094,
    "vest": 17447,
    "弘": 1843,
    "attracted": 6296,
    "malicious": 24391,
    "gnu": 27004,
    "closer": 3553,
    "inexpensive": 23766,
    "##mbling": 29256,
    "viii": 9937,
    "[unused757]": 762,
    "reuters": 26665,
    "soy": 25176,
    "lancashire": 9638,
    "fix": 8081,
    "approaches": 8107,
    "goodman": 14514,
    "mustard": 23187,
    "##you": 29337,
    "continuity": 13717,
    "##⊕": 30139,
    "doris": 15467,
    "edward": 3487,
    "jonathan": 5655,
    "many": 2116,
    "boyle": 16694,
    "proceeded": 8979,
    "awakening": 16936,
    "concerned": 4986,
    "overhaul": 18181,
    "wrongly": 29116,
    "fortification": 23050,
    "shear": 18330,
    "##¡": 29644,
    "##п": 29746,
    "exceed": 13467,
    "##tov": 26525,
    "alloys": 28655,
    "fertility": 17376,
    "mascot": 13314,
    "stalker": 23883,
    "system": 2291,
    "cassandra": 15609,
    "athletic": 5188,
    "soon": 2574,
    "##ima": 9581,
    "pets": 18551,
    "weaponry": 22711,
    "##ester": 20367,
    "148": 16459,
    "outing": 26256,
    "cassie": 8869,
    "nail": 13774,
    "stumble": 21811,
    "hood": 7415,
    "similarity": 14402,
    "cai": 29080,
    "leased": 12019,
    "accredited": 11459,
    "topography": 21535,
    "saturn": 14784,
    "##ropriation": 26121,
    "daggers": 24210,
    "refusing": 11193,
    "209": 19348,
    "howard": 4922,
    "maru": 26280,
    "waistband": 27553,
    "hq": 16260,
    "trenton": 17148,
    "dracula": 18500,
    "[unused26]": 27,
    "stones": 6386,
    "join": 3693,
    "multiplied": 28608,
    "patient": 5776,
    "##西": 30473,
    "arson": 24912,
    "canucks": 26177,
    "duran": 22959,
    "nestor": 25397,
    "unsuccessfully": 11551,
    "hairs": 13606,
    "pianist": 9066,
    "##oir": 21165,
    "calmly": 12885,
    "##ŋ": 29673,
    "##nath": 16207,
    "##cake": 17955,
    "##五": 30279,
    "₱": 1575,
    "slim": 11754,
    "谷": 1951,
    "hits": 4978,
    "##nard": 16564,
    "allowed": 3039,
    "plates": 7766,
    "##nia": 6200,
    "monumental": 15447,
    "lucie": 28831,
    "##tr": 16344,
    "##cology": 19824,
    "##rmi": 28550,
    "##kers": 11451,
    "headquarters": 4075,
    "icao": 18055,
    "praised": 5868,
    "split": 3975,
    "wildly": 13544,
    "##als": 9777,
    "hart": 7530,
    "corresponds": 14788,
    "propeller": 15692,
    "##tang": 26067,
    "speaking": 4092,
    "sculptures": 10801,
    "laughs": 11680,
    "renegade": 28463,
    "##eger": 26320,
    "femme": 26893,
    "balanced": 12042,
    "denotes": 14796,
    "delle": 24121,
    "laos": 15786,
    "rebel": 8443,
    "weaker": 15863,
    "stone": 2962,
    "##olved": 16116,
    "[unused790]": 795,
    "sustain": 15770,
    "jesuits": 20297,
    "forsyth": 29434,
    "comic": 5021,
    "begs": 27591,
    "husbands": 19089,
    "accessed": 11570,
    "shrubs": 18812,
    "wc": 15868,
    "[unused54]": 55,
    "finds": 4858,
    "thirteen": 7093,
    "handle": 5047,
    "accepting": 10564,
    "glenn": 9465,
    "horn": 7109,
    "rubber": 8903,
    "attaining": 26615,
    "diploma": 9827,
    "abbas": 17532,
    "##bians": 26376,
    "[unused665]": 670,
    "monroe": 9747,
    "organizational": 13296,
    "##gol": 24141,
    "rob": 6487,
    "mbe": 20301,
    "sequel": 8297,
    "notice": 5060,
    "##iere": 21253,
    "formal": 5337,
    "hoax": 28520,
    "led": 2419,
    "##dlow": 27002,
    "1704": 27769,
    "norfolk": 7735,
    "cultivation": 13142,
    "murdering": 21054,
    "mats": 22281,
    "viz": 26619,
    "chopin": 25479,
    "##ovo": 16059,
    "standing": 3061,
    "##tute": 24518,
    "##gh": 5603,
    "acceleration": 16264,
    "dishes": 10447,
    "len": 18798,
    "ʼ": 1146,
    "blowing": 11221,
    "board": 2604,
    "integral": 9897,
    "pointing": 7302,
    "audiences": 9501,
    "eyelids": 16544,
    "eponymous": 15248,
    "ac": 9353,
    "coupled": 11211,
    "##ano": 6761,
    "essentially": 7687,
    "prussian": 10734,
    "reynolds": 9579,
    "##uting": 20807,
    "[unused549]": 554,
    "auto": 8285,
    "[unused623]": 628,
    "channels": 6833,
    "endure": 18094,
    "repeated": 5567,
    "vessels": 6470,
    "allocated": 11095,
    "remade": 26943,
    "thrilling": 26162,
    "ས": 1436,
    "##ettes": 26592,
    "condom": 20910,
    "mold": 18282,
    "bathroom": 5723,
    "welding": 23604,
    "wrong": 3308,
    "gr": 24665,
    "crimson": 11466,
    "##ส": 29956,
    "sub": 4942,
    "backup": 10200,
    "authors": 6048,
    "inhabit": 21490,
    "nilsson": 29376,
    "shaun": 16845,
    "advertising": 6475,
    "##မ": 29973,
    "thin": 4857,
    "##nidae": 29135,
    "color": 3609,
    "辶": 1956,
    "##ros": 7352,
    "mas": 16137,
    "1990s": 4134,
    "cary": 20533,
    "christensen": 24189,
    "##bon": 11735,
    "nan": 16660,
    "haste": 24748,
    "rouge": 12801,
    "increases": 7457,
    "plank": 24000,
    "1758": 16832,
    "factors": 5876,
    "##oses": 27465,
    "##inium": 27585,
    "##sis": 6190,
    "knitting": 26098,
    "stripping": 23987,
    "subunit": 24312,
    "ordinance": 16692,
    "towers": 7626,
    "attested": 18470,
    "clinic": 9349,
    "oklahoma": 5858,
    "plumage": 28764,
    "starbucks": 29500,
    "afford": 8984,
    "(": 1006,
    "##aling": 21682,
    "vigorous": 21813,
    "alba": 18255,
    "##ats": 11149,
    "ghetto": 17276,
    "ordained": 9492,
    "squadron": 3704,
    "215": 17405,
    "##ogist": 22522,
    "legion": 8009,
    "blackwell": 18776,
    "moaning": 22653,
    "emilia": 20417,
    "decorated": 7429,
    "cia": 9915,
    "obviously": 5525,
    "marxist": 15511,
    "histories": 15215,
    "1717": 27525,
    "ruled": 5451,
    "##！": 30512,
    "contest": 5049,
    "intern": 25204,
    "relativity": 20805,
    "resentment": 20234,
    "valle": 20171,
    "unlock": 19829,
    "##iensis": 27806,
    "##श": 29872,
    "horses": 5194,
    "arrivals": 25470,
    "##tow": 18790,
    "practitioner": 18742,
    "buddhist": 7992,
    "rainforest": 18951,
    "show": 2265,
    "º": 1089,
    "suggestions": 15690,
    "##ᵐ": 30038,
    "featured": 2956,
    "monks": 9978,
    "##routed": 25849,
    "conner": 17639,
    "hinted": 21795,
    "endings": 21306,
    "##み": 30204,
    "##ك": 29835,
    "faulty": 28927,
    "manifesto": 17124,
    "##arns": 23549,
    "abstraction": 24504,
    "hear": 2963,
    "##rel": 16570,
    "1987": 3055,
    "adrian": 7918,
    "nico": 19332,
    "assyrian": 19950,
    "##kley": 22315,
    "clothed": 24963,
    "illustration": 14614,
    "mat": 13523,
    "taxa": 23726,
    "fined": 16981,
    "а": 1180,
    "little": 2210,
    "manually": 21118,
    "tibet": 13319,
    "governmental": 10605,
    "##ggy": 22772,
    "ו": 1246,
    "##osed": 24768,
    "angered": 18748,
    "thirty": 4228,
    "tractors": 28292,
    "liverpool": 6220,
    "trauma": 12603,
    "julio": 15090,
    "anne": 4776,
    "≈": 1606,
    "objections": 17304,
    "##lves": 20899,
    "[unused840]": 845,
    "droplets": 27126,
    "kitchener": 27154,
    "737": 22061,
    "stryker": 25429,
    "finger": 4344,
    "kicking": 10209,
    "belize": 18867,
    "middletown": 28747,
    "保": 1766,
    "indiana": 5242,
    "kelvin": 24810,
    "##ih": 19190,
    "voluntary": 10758,
    "cornish": 17797,
    "validation": 27354,
    "##gur": 27390,
    "nitrogen": 14114,
    "σ": 1173,
    "##inations": 22045,
    "invest": 15697,
    "fray": 25975,
    "doc": 9986,
    "campaign": 3049,
    "##kovsky": 23829,
    "distant": 6802,
    "[unused215]": 220,
    "[unused786]": 791,
    "playwright": 11170,
    "##gm": 21693,
    "oppose": 15391,
    "vascular": 21449,
    "bog": 22132,
    "cow": 11190,
    "ɕ": 1113,
    "choice": 3601,
    "jewellery": 21545,
    "##bal": 10264,
    "completed": 2949,
    "sect": 17831,
    "nichols": 15746,
    "##wash": 28556,
    "saskatchewan": 10068,
    "flats": 14201,
    "##lei": 23057,
    "harden": 28751,
    "1952": 3999,
    "kerman": 24500,
    "1896": 6306,
    "tiffany": 14381,
    "pillar": 14809,
    "schizophrenia": 23683,
    "##una": 9521,
    "tong": 15740,
    "23": 2603,
    "##cd": 19797,
    "anomaly": 28685,
    "leipzig": 11222,
    "liechtenstein": 26500,
    "##uously": 28078,
    "[unused161]": 166,
    "lindsay": 12110,
    "կ": 1227,
    "bernard": 6795,
    "learning": 4083,
    "retail": 7027,
    "buddhism": 11388,
    "compositions": 9265,
    "drank": 10749,
    "##out": 5833,
    "[unused655]": 660,
    "wentworth": 20572,
    "amadeus": 27185,
    "claws": 10702,
    "palazzo": 18482,
    "cassette": 13903,
    "luis": 6446,
    "barrett": 12712,
    "1756": 22370,
    "motorway": 13119,
    "1648": 22533,
    "³": 1083,
    "pity": 12063,
    "∅": 1593,
    "barangay": 20937,
    "draper": 23641,
    "camilla": 26902,
    "rail": 4334,
    "shore": 5370,
    "##南": 30311,
    "hats": 16717,
    "lizards": 23898,
    "1721": 27689,
    "honourable": 17164,
    "resources": 4219,
    "ulster": 11059,
    "seasonal": 12348,
    "##class": 26266,
    "corrugated": 27186,
    "kung": 18577,
    "numerous": 3365,
    "[unused268]": 273,
    "abu": 8273,
    "##kovic": 14733,
    "verdi": 20580,
    "victories": 9248,
    "follows": 4076,
    "##gra": 17643,
    "dazzling": 28190,
    "governorate": 15162,
    "lumber": 13891,
    "project": 2622,
    "##recht": 28109,
    "34": 4090,
    "cyclists": 21912,
    "kidnapping": 15071,
    "##itung": 28813,
    "assessment": 7667,
    "[unused457]": 462,
    "watched": 3427,
    "##haling": 23896,
    "serbian": 6514,
    "ava": 10927,
    "asteroids": 26732,
    "mcintosh": 29052,
    "recipes": 19328,
    "bidding": 17534,
    "clement": 12223,
    "messing": 22308,
    "[unused718]": 723,
    "reused": 26513,
    "ras": 20710,
    "guest": 4113,
    "warnings": 16234,
    "amherst": 19850,
    "molly": 9618,
    "outlined": 14801,
    "malibu": 29047,
    "elections": 3864,
    "##esa": 22447,
    "##p": 2361,
    "medieval": 5781,
    "amusing": 19142,
    "parana": 28383,
    "##ß": 19310,
    "خ": 1277,
    "christina": 12657,
    "त": 1323,
    "ー": 1739,
    "##nical": 20913,
    "[unused505]": 510,
    "phase": 4403,
    "stadium": 3346,
    "lowered": 6668,
    "[unused948]": 953,
    "##coming": 18935,
    "bills": 8236,
    "requests": 11186,
    "##quet": 12647,
    "##dilly": 28832,
    "anderson": 5143,
    "cortes": 22242,
    "partnership": 5386,
    "utilized": 12550,
    "slabs": 28761,
    "authenticity": 21452,
    "melodies": 16106,
    "v6": 25275,
    "elk": 18995,
    "nationwide": 9053,
    "oakland": 9182,
    "wehrmacht": 23443,
    "ask": 3198,
    "forthcoming": 16875,
    "jia": 25871,
    "oversight": 15709,
    "patch": 8983,
    "[unused373]": 378,
    "##jima": 19417,
    "##চ": 29892,
    "##quay": 25575,
    "free": 2489,
    "ike": 25209,
    "2017": 2418,
    "peterborough": 17587,
    "##oza": 25036,
    "resin": 24604,
    "##dion": 29573,
    "##leigh": 13615,
    "invasive": 17503,
    "currently": 2747,
    "雄": 1974,
    "elevator": 7764,
    "vomiting": 24780,
    "mischief": 25166,
    "used": 2109,
    "harvard": 5765,
    "authoritarian": 27246,
    "development": 2458,
    "##ngen": 25997,
    "sean": 5977,
    "tq": 28816,
    "##*": 29621,
    "empowerment": 23011,
    "subsidiaries": 20178,
    "ou": 15068,
    "412": 25873,
    "flipped": 9357,
    "henson": 27227,
    "##pala": 19636,
    "##apple": 23804,
    "##bine": 16765,
    "arbor": 19679,
    "cheerful": 18350,
    "ᵣ": 1508,
    "₁": 1548,
    "por": 18499,
    "##pha": 21890,
    "bail": 15358,
    "plume": 26888,
    "##ailed": 17440,
    "[unused524]": 529,
    "blurred": 18449,
    "tobias": 16858,
    "holm": 28925,
    "and": 1998,
    "onto": 3031,
    "reissued": 14805,
    "barked": 17554,
    "[unused36]": 37,
    "gearbox": 22227,
    "##dict": 29201,
    "locke": 18343,
    "santana": 21158,
    "packard": 24100,
    "tell": 2425,
    "proposal": 6378,
    "armstrong": 9143,
    "sar": 18906,
    "asked": 2356,
    "32": 3590,
    "##holz": 28094,
    "##ब": 29865,
    "club": 2252,
    "liberation": 7931,
    "caliphate": 28034,
    "pound": 9044,
    "helens": 24074,
    "panicked": 16035,
    "southward": 22161,
    "followed": 2628,
    "comprises": 8681,
    "abdomen": 13878,
    "##amine": 19915,
    "cricket": 4533,
    "reprint": 25364,
    "create": 3443,
    "ν": 1167,
    "bleeding": 9524,
    "suspected": 6878,
    "三": 1741,
    "##ete": 12870,
    "##olio": 29401,
    "⅔": 1582,
    "spend": 5247,
    "jeep": 14007,
    "baker": 6243,
    "exposure": 7524,
    "nicholson": 16955,
    "[unused69]": 70,
    "##ioms": 29178,
    "rhythmic": 14797,
    "tops": 13284,
    "plaintiffs": 23953,
    "impending": 17945,
    "romanian": 7056,
    "boogie": 21495,
    "mae": 11530,
    "segment": 6903,
    "##gon": 7446,
    "چ": 1303,
    "##θ": 29725,
    "locker": 12625,
    "ो": 1343,
    "##cote": 19800,
    "dismissing": 28913,
    "galloway": 22372,
    "##ı": 11722,
    "critics": 4401,
    "economic": 3171,
    "incident": 5043,
    "assortment": 26285,
    "compliment": 19394,
    "landfall": 21042,
    "happen": 4148,
    "quiver": 29049,
    "retention": 20125,
    "rumours": 19200,
    "kaufman": 23699,
    "exponential": 27258,
    "##to": 3406,
    "aztec": 25245,
    "comprehensive": 7721,
    "congregational": 20809,
    "##eis": 17580,
    "##ua": 6692,
    "camel": 19130,
    "##fo": 14876,
    "##phones": 19093,
    "banking": 8169,
    "josiah": 24461,
    "sofa": 10682,
    "off": 2125,
    "sima": 26769,
    "notebook": 14960,
    "ow": 27593,
    "suffer": 9015,
    "beaten": 7854,
    "noah": 7240,
    "kara": 13173,
    "kindly": 19045,
    "holidays": 11938,
    "server": 8241,
    "opposition": 4559,
    "ata": 29533,
    "1682": 29478,
    "##lok": 29027,
    "expertise": 11532,
    "interpretations": 15931,
    "peeked": 18652,
    "authentic": 14469,
    "republicans": 10643,
    "gaza": 14474,
    "##na": 2532,
    "##yman": 17906,
    "##£": 29646,
    "animal": 4111,
    "##ics": 6558,
    "bureau": 4879,
    "conservatory": 11879,
    "gala": 16122,
    "surname": 11988,
    "furthermore": 7297,
    "vowel": 12710,
    "curious": 8025,
    "jerseys": 28772,
    "[unused365]": 370,
    "extends": 8908,
    "mongolia": 13906,
    "paramount": 11734,
    "##aldi": 24657,
    "[unused980]": 985,
    "peck": 18082,
    "applicable": 12711,
    "reassure": 24647,
    "##going": 26966,
    "weather": 4633,
    "##樹": 30410,
    "##ose": 9232,
    "bingo": 27137,
    "##hyl": 29598,
    "momentarily": 16032,
    "##held": 24850,
    "##hal": 8865,
    "modern": 2715,
    "drawn": 4567,
    "poorer": 27196,
    "parameters": 11709,
    "nationale": 17360,
    "politics": 4331,
    "continent": 9983,
    "cleopatra": 22003,
    "mustered": 21900,
    "splits": 19584,
    "seneca": 21224,
    "代": 1760,
    "##py": 7685,
    "##acious": 20113,
    "ralph": 6798,
    "##ы": 29113,
    "collaborations": 17437,
    "adjustment": 19037,
    "funky": 24151,
    "##«": 29654,
    "pirate": 11304,
    "preserved": 6560,
    "take": 2202,
    "thesis": 9459,
    "դ": 1222,
    "[unused452]": 457,
    "##cia": 7405,
    "hackett": 28630,
    "compulsion": 27638,
    "careless": 23358,
    "training": 2731,
    "trinity": 7124,
    "##tized": 23355,
    "bahia": 22474,
    "turner": 6769,
    "##ს": 29988,
    "##fixed": 23901,
    "##ison": 10929,
    "eventual": 9523,
    "instrumentation": 16015,
    "furnace": 17533,
    "deciduous": 22411,
    "saigon": 24001,
    "comparative": 12596,
    "unknown": 4242,
    "analyses": 16478,
    "##ད": 29964,
    "seeds": 8079,
    "##ʻ": 29711,
    "realized": 3651,
    "werewolf": 12797,
    "marissa": 22767,
    "pray": 11839,
    "##nca": 20909,
    "##ג": 29790,
    "##rial": 14482,
    "occurs": 5158,
    "pressures": 15399,
    "tyrol": 27193,
    "##rong": 17583,
    "millionaire": 19965,
    "financially": 13732,
    "genetic": 7403,
    "guilty": 5905,
    "terminal": 5536,
    "threads": 16457,
    "##enne": 24336,
    "knowledge": 3716,
    "masonry": 18103,
    "##lved": 26832,
    "[unused956]": 961,
    "transporting": 18276,
    "247": 23380,
    "plunging": 29059,
    "blades": 10491,
    "electrical": 5992,
    "freaking": 13847,
    "ල": 1406,
    "nepal": 8222,
    "##eka": 19025,
    "1905": 5497,
    "##nikov": 22576,
    "solemnly": 26294,
    "travelling": 8932,
    "##org": 21759,
    "parcels": 28998,
    "paz": 18183,
    "frederick": 5406,
    "##lia": 6632,
    "nbc": 6788,
    "##pathy": 20166,
    "[unused551]": 556,
    "minded": 13128,
    "##chon": 24561,
    "divisional": 14167,
    "##rent": 22787,
    "1985": 3106,
    "feud": 13552,
    "17": 2459,
    "northwest": 4514,
    "##け": 30180,
    "1958": 3845,
    "fisher": 8731,
    "girlfriend": 6513,
    "setting": 4292,
    "sire": 15785,
    "joey": 9558,
    "infection": 8985,
    "290": 17222,
    "82": 6445,
    "##emon": 26941,
    "swelling": 18348,
    "triumphant": 25251,
    "govern": 21208,
    "suppliers": 20141,
    "candles": 14006,
    "spa": 12403,
    "classmate": 23175,
    "grimaced": 19014,
    "worrying": 15366,
    "##chs": 18069,
    "motives": 17108,
    "38th": 22051,
    "orton": 25161,
    "goodnight": 22708,
    "wa": 11333,
    "##astic": 20875,
    "jae": 22770,
    "pagan": 14318,
    "760": 24643,
    "##ometric": 28993,
    "##ろ": 30215,
    "cbc": 13581,
    "confederacy": 18179,
    "existed": 5839,
    "donovan": 12729,
    "liberated": 19553,
    "bruins": 18159,
    "urban": 3923,
    "museo": 19713,
    "painted": 4993,
    "squirrel": 18197,
    "peabody": 20004,
    "malaria": 19132,
    "[unused37]": 38,
    "minister": 2704,
    "saves": 13169,
    "藤": 1944,
    "##ones": 21821,
    "##ₕ": 30093,
    "##lance": 23078,
    "maple": 11035,
    "##section": 29015,
    "stern": 8665,
    "alderman": 18977,
    "##ory": 10253,
    "bottoms": 24196,
    "citations": 22921,
    "[unused825]": 830,
    "irrational": 23179,
    "laugh": 4756,
    "leopard": 16240,
    "[unused877]": 882,
    "carries": 7883,
    "hugged": 10308,
    "megan": 12756,
    "restart": 23818,
    "verve": 29230,
    "##hab": 25459,
    "oxfordshire": 20124,
    "xbox": 12202,
    "##atin": 20363,
    "##ization": 3989,
    "easter": 10957,
    "loki": 24143,
    "##eur": 11236,
    "derive": 18547,
    "most": 2087,
    "bois": 19651,
    "oregon": 5392,
    "nostrils": 15325,
    "inactivated": 15663,
    "slated": 18517,
    "##wide": 22517,
    "frost": 10097,
    "trans": 9099,
    "##rocity": 21735,
    "camps": 7958,
    "battleship": 17224,
    "wagon": 9540,
    "1870s": 14896,
    "##lian": 15204,
    "##nds": 18376,
    "unfair": 15571,
    "punk": 7196,
    "newscasts": 24482,
    "##xy": 18037,
    "remington": 25282,
    "vanity": 18736,
    "##lai": 19771,
    "14": 2403,
    "ₗ": 1566,
    "broadcasters": 18706,
    "import": 12324,
    "rarely": 6524,
    "rafe": 15819,
    "[unused924]": 929,
    "[unused141]": 146,
    "financing": 12135,
    "##beam": 28302,
    "avid": 18568,
    "encouragement": 15846,
    "berry": 10498,
    "wally": 18202,
    "defender": 8291,
    "##yuki": 19663,
    "cfl": 18830,
    "failed": 3478,
    "clothes": 4253,
    "##fe": 7959,
    "demonstrations": 13616,
    "christine": 10941,
    "inquisition": 24638,
    "existing": 4493,
    "swallowed": 7351,
    "##ল": 29909,
    "emanuel": 21135,
    "grape": 14722,
    "establishing": 7411,
    "judgments": 26186,
    "分": 1775,
    "finer": 26954,
    "regrets": 23161,
    "vs": 5443,
    "hurt": 3480,
    "##64": 21084,
    "##rte": 19731,
    "soyuz": 29412,
    "pointe": 26119,
    "explodes": 27583,
    "methodology": 16134,
    "sheila": 15062,
    "##hey": 14844,
    "dubois": 26258,
    "jett": 22962,
    "humid": 14178,
    "incorporation": 16935,
    "25th": 10965,
    "cod": 19429,
    "→": 1585,
    "frey": 20068,
    "##abas": 27537,
    "danes": 27476,
    "rumor": 19075,
    "水": 1893,
    "mutations": 14494,
    "offs": 12446,
    "##not": 17048,
    "200": 3263,
    "##yd": 25688,
    "lobby": 9568,
    "##ミ": 30250,
    "tenure": 7470,
    "group": 2177,
    "bmw": 13154,
    "freely": 10350,
    "featherweight": 27145,
    "[unused82]": 83,
    "gotten": 5407,
    "rap": 9680,
    "西": 1947,
    "platoon": 13799,
    "kb": 21677,
    "##plicity": 27293,
    "grotesque": 27707,
    "davy": 23255,
    "##ظ": 29829,
    "anchors": 24674,
    "myself": 2870,
    "trolls": 27980,
    "##dara": 25329,
    "宗": 1821,
    "clearer": 24509,
    "chewed": 18362,
    "regiments": 10435,
    "schleswig": 21173,
    "typing": 22868,
    "lavish": 22689,
    "important": 2590,
    "mayoral": 23578,
    "reactive": 22643,
    "barack": 13857,
    "noted": 3264,
    "family": 2155,
    "spokesperson": 15974,
    "huh": 9616,
    "##ture": 11244,
    "demise": 13614,
    "promote": 5326,
    "coupe": 15130,
    "sudan": 10411,
    "##sbury": 18065,
    "graduate": 4619,
    "begun": 5625,
    "borne": 15356,
    "##三": 30267,
    "lydia": 14076,
    "##nce": 5897,
    "##ю": 29757,
    "amar": 23204,
    "guitarists": 28523,
    "chili": 20238,
    "aggregate": 9572,
    "receiving": 4909,
    "seem": 4025,
    "##fc": 11329,
    "armistice": 19125,
    "squid": 26852,
    "casey": 9036,
    "48": 4466,
    "snack": 19782,
    "##lative": 26255,
    "accusing": 16723,
    "flour": 13724,
    "visa": 9425,
    "biotechnology": 20353,
    "[unused130]": 135,
    "lawyers": 9559,
    "rated": 6758,
    "savings": 10995,
    "sweatshirt": 28095,
    "claim": 4366,
    "considerable": 6196,
    "##vn": 16022,
    "concepts": 8474,
    "46th": 27990,
    "maverick": 27187,
    "worse": 4788,
    "southwestern": 8772,
    "raider": 27826,
    "mastery": 26364,
    "operatic": 22534,
    "rhapsody": 29395,
    "nl": 17953,
    "audible": 19525,
    "##ذ": 29822,
    "1990": 2901,
    "repairs": 10315,
    "reservoirs": 22535,
    "vertically": 20018,
    "jaime": 14519,
    "claire": 6249,
    "##lta": 24458,
    "hundred": 3634,
    "月": 1872,
    "crushed": 10560,
    "ari": 10488,
    "motivation": 14354,
    "enraged": 18835,
    "person": 2711,
    "resurgence": 26303,
    "##land": 3122,
    "[unused801]": 806,
    "pension": 11550,
    "41": 4601,
    "worried": 5191,
    "escorts": 24877,
    "##pired": 21649,
    "darling": 9548,
    "##rence": 24413,
    "called": 2170,
    "##lino": 25226,
    "faction": 10233,
    "inadequate": 14710,
    "robber": 27307,
    "townsville": 27492,
    "jewelry": 11912,
    "partners": 5826,
    "eating": 5983,
    "liberals": 13350,
    "wiener": 25072,
    "household": 4398,
    "door": 2341,
    "##gp": 21600,
    "ferocious": 27863,
    "optics": 21026,
    "trim": 12241,
    "conditioning": 14372,
    "josie": 15293,
    "glow": 8652,
    "servers": 14903,
    "agreement": 3820,
    "accelerate": 23306,
    "spun": 7455,
    "##lism": 28235,
    "squads": 20191,
    "slits": 29199,
    "##res": 6072,
    "##eras": 24140,
    "shandong": 25768,
    "piss": 18138,
    "09": 5641,
    "equivalent": 5662,
    "mangrove": 29340,
    "namely": 8419,
    "virgil": 17270,
    "interact": 11835,
    "transferred": 4015,
    "vietnam": 5148,
    "kaye": 23686,
    "lasers": 23965,
    "##bard": 21458,
    "saddle": 12279,
    "##yer": 10532,
    "##cc": 9468,
    "procedural": 24508,
    "somber": 28587,
    "nrhp": 22424,
    "cheese": 8808,
    "##resh": 21898,
    "ernie": 14637,
    "becca": 22140,
    "395": 24673,
    "businessman": 6883,
    "definitions": 15182,
    "judiciary": 14814,
    "lips": 2970,
    "goblin": 22639,
    "buddies": 24115,
    "starter": 11753,
    "winds": 7266,
    "massif": 24875,
    "judges": 6794,
    "##puri": 24661,
    "goa": 15244,
    "fidelity": 22625,
    "shame": 9467,
    "warped": 25618,
    "imprint": 15738,
    "battalion": 4123,
    "##ʃ": 29696,
    "huff": 21301,
    "concerts": 6759,
    "lacking": 11158,
    "steamed": 21734,
    "southernmost": 21787,
    "か": 1651,
    "[unused38]": 39,
    "swarm": 21708,
    "##ending": 18537,
    "[unused863]": 868,
    "isotope": 28846,
    "tacoma": 22954,
    "fraternity": 13577,
    "evolutionary": 12761,
    "fleming": 13779,
    "offended": 15807,
    "obvious": 5793,
    "03": 6021,
    "keller": 16155,
    "tending": 25069,
    "nuclei": 23767,
    "karlsruhe": 26660,
    "history": 2381,
    "assumes": 15980,
    "former": 2280,
    "korean": 4759,
    "common": 2691,
    "maud": 21696,
    "[unused415]": 420,
    "exploration": 8993,
    "##wat": 24281,
    "gleam": 24693,
    "asserted": 13647,
    "grinning": 11478,
    "canopy": 14582,
    "##о": 14150,
    "giles": 13287,
    "affect": 7461,
    "alliances": 21277,
    "##rgo": 18581,
    "holly": 9079,
    "[unused599]": 604,
    "progresses": 22901,
    "tempting": 23421,
    "##eda": 11960,
    "ethernet": 26110,
    "levant": 24485,
    "##akes": 20060,
    "##王": 30435,
    "carson": 9806,
    "needs": 3791,
    "ranking": 5464,
    "shoes": 6007,
    "##idal": 16975,
    "impulse": 14982,
    "carousel": 27628,
    "##ʉ": 29697,
    "chin": 5413,
    "##cence": 29320,
    "##vis": 11365,
    "85": 5594,
    "al": 2632,
    "argues": 9251,
    "travers": 29053,
    "##×": 26306,
    "ignorance": 18173,
    "scale": 4094,
    "[unused859]": 864,
    "##get": 18150,
    "coated": 15026,
    "peak": 4672,
    "assertion": 23617,
    "famed": 15607,
    "leap": 11679,
    "eureka": 21142,
    "noon": 11501,
    "##ᄋ": 29999,
    "han": 7658,
    "torpedoes": 18544,
    "drills": 28308,
    "prevention": 9740,
    "resolving": 29304,
    "faces": 5344,
    "sentences": 11746,
    "##ˤ": 29719,
    "lodges": 26767,
    "##镇": 30492,
    "youths": 19634,
    "ky": 18712,
    "stacks": 20829,
    "betting": 19244,
    "least": 2560,
    "clarify": 25037,
    "sikh": 17246,
    "revolving": 24135,
    "duffy": 17971,
    "monsieur": 21380,
    "scientists": 6529,
    "##acy": 15719,
    "##uance": 26620,
    "gaps": 16680,
    "shapes": 10466,
    "##urai": 24804,
    "tales": 7122,
    "precedence": 23359,
    "promoted": 3755,
    "unsafe": 25135,
    "sans": 20344,
    "practitioners": 14617,
    "ale": 15669,
    "weddings": 20429,
    "[unused847]": 852,
    "outgoing": 22011,
    "strips": 12970,
    "##cup": 15569,
    "##eric": 22420,
    "##les": 4244,
    "fungi": 15289,
    "greenfield": 26713,
    "flora": 10088,
    "pressed": 4508,
    "##is": 2483,
    "driver": 4062,
    "expense": 10961,
    "tossing": 15021,
    "robot": 8957,
    "jean": 3744,
    "##dos": 12269,
    "mark": 2928,
    "norway": 5120,
    "eucalyptus": 27111,
    "[unused622]": 627,
    "announcement": 8874,
    "collections": 6407,
    "program": 2565,
    "vitamin": 17663,
    "##king": 6834,
    "[unused240]": 245,
    "palette": 27396,
    "twenty20": 22240,
    "##‐": 30048,
    "stella": 11894,
    "##山": 30357,
    "[unused945]": 950,
    "lobes": 24423,
    "poole": 19107,
    "originals": 23728,
    "slippery": 22274,
    "##l": 2140,
    "##orro": 29459,
    "lynx": 22636,
    "describe": 6235,
    "deprived": 17676,
    "simpler": 16325,
    "softer": 19013,
    "mellon": 22181,
    "##vern": 23062,
    "woodward": 19133,
    "##any": 19092,
    "vertigo": 28246,
    "unidentified": 20293,
    "gambia": 26728,
    "goethe": 23173,
    "mala": 28935,
    "scraped": 20378,
    "[unused910]": 915,
    "##б": 29740,
    "outlines": 22106,
    "professor": 2934,
    "233": 22115,
    "pulsed": 24107,
    "19": 2539,
    "本": 1876,
    "##iam": 25107,
    "pigeons": 27567,
    "1737": 26738,
    "overthrow": 16857,
    "accord": 15802,
    "lucia": 12337,
    "twitch": 19435,
    "effects": 3896,
    "forceful": 28552,
    "mini": 7163,
    "ruiz": 18773,
    "##oles": 29111,
    "scanning": 13722,
    "shrill": 28349,
    "momentum": 11071,
    "##mour": 20360,
    "precipitation": 13511,
    "gina": 17508,
    "twinkle": 29038,
    "dreams": 5544,
    "movie": 3185,
    "##tin": 7629,
    "##atus": 15590,
    "##ை": 29935,
    "permitting": 24523,
    "##ates": 8520,
    "##ut": 4904,
    "##к": 23925,
    "initiation": 17890,
    "elementary": 4732,
    "100": 2531,
    "##ogical": 20734,
    "cora": 17195,
    "maneuver": 17519,
    "[unused694]": 699,
    "##ty": 3723,
    "##core": 17345,
    "198": 20003,
    "##ク": 30228,
    "##）": 30514,
    "preserving": 15224,
    "##clave": 23650,
    "koppen": 20139,
    "flames": 7311,
    "rat": 9350,
    "##i": 2072,
    "##ण": 29858,
    "providers": 11670,
    "[unused987]": 992,
    "chick": 14556,
    "##ধ": 29901,
    "consider": 5136,
    "rosewood": 29528,
    "barn": 8659,
    "fundraising": 15524,
    "prayers": 12583,
    "specifies": 27171,
    "##ہ": 29845,
    "delivering": 12771,
    "bohemian": 18063,
    "##gawa": 21188,
    "gracefully": 28266,
    "buckinghamshire": 21712,
    "##lab": 20470,
    "##berto": 21201,
    "parrot": 22530,
    "playground": 14705,
    "##rogate": 21799,
    "engaging": 11973,
    "##不": 30270,
    "plots": 14811,
    "tickets": 9735,
    "showing": 4760,
    "arts": 2840,
    "[unused443]": 448,
    "crossings": 20975,
    "quinlan": 28451,
    "creeping": 18266,
    "[unused512]": 517,
    "##♭": 24102,
    "##eering": 20550,
    "##ease": 19500,
    "around": 2105,
    "##hism": 23108,
    "relevant": 7882,
    "₍": 1558,
    "tackled": 26176,
    "rowe": 20538,
    "rug": 20452,
    "sexually": 12581,
    "inevitably": 21268,
    "##ivation": 25761,
    "×": 1095,
    "logical": 11177,
    "spreading": 9359,
    "propellers": 23405,
    "venom": 15779,
    "##藤": 30470,
    "recipe": 17974,
    "hurting": 11878,
    "ち": 1662,
    "##zz": 13213,
    "acheron": 21427,
    "torture": 8639,
    "1781": 16788,
    "##phic": 17926,
    "protects": 18227,
    "dom": 14383,
    "##linson": 25051,
    "designate": 24414,
    "swimming": 5742,
    "brand": 4435,
    "[unused857]": 862,
    "shu": 18454,
    "‰": 1530,
    "##ental": 21050,
    "d": 1040,
    "looking": 2559,
    "fed": 7349,
    "##世": 30271,
    "illuminating": 27816,
    "jarvis": 21072,
    "searched": 9022,
    "##udy": 20217,
    "##pped": 11469,
    "marlborough": 22830,
    "decreases": 17913,
    "lansing": 22304,
    "##har": 8167,
    "orthodoxy": 26582,
    "mag": 23848,
    "interested": 4699,
    "narcotics": 27290,
    "parsons": 13505,
    "chilly": 24222,
    "fisheries": 13424,
    "jacksonville": 13057,
    "marquez": 27320,
    "500": 3156,
    "##27": 22907,
    "favourites": 28271,
    "nsw": 11524,
    "kicks": 14590,
    "topped": 9370,
    "walls": 3681,
    "accessories": 16611,
    "##mas": 9335,
    "england": 2563,
    "circuit": 4984,
    "pairs": 7689,
    "##aries": 12086,
    "mater": 16289,
    "compatible": 11892,
    "dylan": 7758,
    "treaties": 16013,
    "##dock": 14647,
    "waving": 12015,
    "cincinnati": 7797,
    "##wave": 16535,
    "ending": 4566,
    "artist": 3063,
    "laws": 4277,
    "aramaic": 28934,
    "selfish": 14337,
    "reef": 12664,
    "##lle": 6216,
    "consist": 8676,
    "arrondissement": 20522,
    "##′": 30066,
    "bs": 18667,
    "##aud": 19513,
    "##elis": 29282,
    "##》": 30166,
    "addicted": 23042,
    "bel": 19337,
    "remarkably": 17431,
    "comeback": 12845,
    "bertie": 20743,
    "given": 2445,
    "convert": 10463,
    "fighter": 4959,
    "stamford": 22469,
    "##wc": 16526,
    "hungarians": 24027,
    "[unused532]": 537,
    "marcos": 14810,
    "filmmaking": 24466,
    "##zai": 25290,
    "gene": 4962,
    "chung": 15972,
    "seville": 18983,
    "utc": 11396,
    "areas": 2752,
    "590": 25186,
    "##uchi": 15217,
    "##mba": 11201,
    "independence": 4336,
    "body": 2303,
    "jax": 13118,
    "mic": 23025,
    "similarly": 6660,
    "trapping": 22977,
    "livingston": 14109,
    "workout": 27090,
    "##print": 16550,
    "ford": 4811,
    "brest": 22451,
    "stacey": 19997,
    "garde": 14535,
    "morales": 17103,
    "corona": 21887,
    "flagship": 10565,
    "serves": 4240,
    "fig": 20965,
    "qi": 18816,
    "rustling": 29188,
    "provided": 3024,
    "toll": 9565,
    "machines": 6681,
    "##ura": 4648,
    "varieties": 9903,
    "1699": 28718,
    "##offs": 27475,
    "fucked": 21746,
    "defendant": 13474,
    "##ajan": 28869,
    "nebula": 25677,
    "warned": 7420,
    "##amen": 27245,
    "yoga": 13272,
    "installment": 18932,
    "stabbing": 21690,
    "ⁿ": 1546,
    "darkly": 27148,
    "##met": 11368,
    "tempest": 22553,
    "[unused98]": 99,
    "intentions": 11174,
    "greenish": 23753,
    "right": 2157,
    "##zcz": 29419,
    "1705": 29326,
    "billy": 5006,
    "mature": 9677,
    "##lous": 15534,
    "compilation": 6268,
    "polynomials": 28175,
    "shrink": 22802,
    "techniques": 5461,
    "hero": 5394,
    "rely": 11160,
    "##aj": 13006,
    "[unused829]": 834,
    "erected": 7019,
    "skip": 13558,
    "277": 25578,
    "are": 2024,
    "paperwork": 17397,
    "##ppa": 13944,
    "guard": 3457,
    "payne": 13470,
    "hysteria": 29004,
    "rbis": 23583,
    "afterwards": 5728,
    "љ": 1215,
    "large": 2312,
    "fey": 23864,
    "##llation": 20382,
    "unprecedented": 15741,
    "indus": 27746,
    "[unused74]": 75,
    "[unused510]": 515,
    "louie": 17438,
    "emery": 24294,
    "bet": 6655,
    "cool": 4658,
    "pages": 5530,
    "eagles": 8125,
    "journal": 3485,
    "token": 19204,
    "decks": 19963,
    "believing": 8929,
    "##ven": 8159,
    "honeymoon": 19227,
    "beale": 28371,
    "nodes": 14164,
    "kurdistan": 23627,
    "stereo": 12991,
    "suburban": 9282,
    "mount": 4057,
    "sami": 17015,
    "##間": 30495,
    "eco": 17338,
    "##sities": 24279,
    "prank": 26418,
    "fines": 21892,
    "appliances": 22449,
    "##drome": 29171,
    "1662": 25909,
    "##nett": 15361,
    "expansion": 4935,
    "[unused43]": 44,
    "[unused39]": 40,
    "slipped": 5707,
    "unlike": 4406,
    "##umen": 27417,
    "penthouse": 22855,
    "##⟨": 30155,
    "storage": 5527,
    "women": 2308,
    "melville": 20154,
    "hilton": 15481,
    "tournaments": 8504,
    "cop": 8872,
    "transatlantic": 26617,
    "coldly": 24745,
    "##ust": 19966,
    "frontiers": 28750,
    "##ques": 10997,
    "humour": 17211,
    "##lana": 16695,
    "discovers": 9418,
    "23rd": 13928,
    "seater": 23392,
    "shorts": 9132,
    "##尚": 30356,
    "##po": 6873,
    "species": 2427,
    "gamble": 18503,
    "##jian": 27685,
    "she": 2016,
    "nazis": 13157,
    "norm": 13373,
    "barlow": 17803,
    "pont": 21179,
    "singapore": 5264,
    "##nting": 24360,
    "basque": 13915,
    "inventor": 12235,
    "descriptions": 13271,
    "tables": 7251,
    "dynamic": 8790,
    "messy": 18307,
    "##火": 30432,
    "ambitious": 12479,
    "boating": 23639,
    "##nged": 21558,
    "beverly": 12218,
    "induction": 15946,
    "##ra": 2527,
    "##ᴮ": 30027,
    "33": 3943,
    "[unused156]": 161,
    "columbian": 25882,
    "longevity": 26906,
    "rapid": 5915,
    "bundesliga": 14250,
    "twin": 5519,
    "vatican": 12111,
    "##†": 30061,
    "1680": 24621,
    "##umb": 25438,
    "af": 21358,
    "afb": 16909,
    "engagements": 20583,
    "meaning": 3574,
    "karin": 24537,
    "merritt": 26701,
    "ه": 1297,
    "525": 25621,
    "##otti": 21325,
    "volcanic": 10942,
    "blackness": 19573,
    "##rina": 11796,
    "creation": 4325,
    "##ike": 17339,
    "czechoslovakia": 12833,
    "projectile": 25921,
    "{": 1063,
    "##ptic": 20746,
    "genie": 22519,
    "randomly": 18154,
    "kc": 21117,
    "yamaha": 24031,
    "村": 1878,
    "counters": 24094,
    "jumper": 21097,
    "friedrich": 8896,
    "tee": 17170,
    "known": 2124,
    "##ek": 5937,
    "##50": 12376,
    "euroleague": 26093,
    "##bh": 23706,
    "vance": 16672,
    "angeles": 3349,
    "absolute": 7619,
    "##kova": 18810,
    "gym": 9726,
    "ich": 22564,
    "wrote": 2626,
    "##ipe": 15457,
    "fathers": 11397,
    "amy": 6864,
    "##bana": 19445,
    "cones": 23825,
    "##cent": 13013,
    "lopez": 8685,
    "[unused874]": 879,
    "##zyn": 23749,
    "##ation": 3370,
    "crossing": 5153,
    "curl": 15390,
    "bitten": 19026,
    "dispatched": 14501,
    "overseas": 6931,
    "sync": 26351,
    "port": 3417,
    "oxygen": 7722,
    "monitor": 8080,
    "fairness": 26935,
    "godzilla": 26631,
    "gma": 20917,
    "blank": 8744,
    "[unused563]": 568,
    "governance": 10615,
    "messiah": 22112,
    "symbolic": 12613,
    "##laise": 25122,
    "##itude": 18679,
    "##emy": 26662,
    "bangs": 28490,
    "durham": 9296,
    "##book": 8654,
    "listing": 10328,
    "##崎": 30360,
    "##ciency": 29125,
    "puppets": 26101,
    "[unused257]": 262,
    "sections": 5433,
    "trophy": 5384,
    "##dale": 5634,
    "##aged": 18655,
    "fragmentation": 28424,
    "##camp": 26468,
    "##∇": 30123,
    "ucla": 12389,
    "sorbonne": 28452,
    "##tech": 15007,
    "##dis": 10521,
    "[unused467]": 472,
    "scares": 29421,
    "standards": 4781,
    "##hc": 16257,
    "bibliography": 24751,
    "wolverine": 22162,
    "herself": 2841,
    "atlantic": 4448,
    "[unused787]": 792,
    "greasy": 26484,
    "joshua": 9122,
    "outfielder": 21033,
    "fitzpatrick": 26249,
    "offences": 18421,
    "abigail": 15983,
    "use": 2224,
    "dust": 6497,
    "manufacturing": 5814,
    "[unused721]": 726,
    "educator": 11490,
    "susceptible": 18002,
    "##rad": 12173,
    "commits": 27791,
    "rosa": 9508,
    "widespread": 6923,
    "honour": 6225,
    "forest": 3224,
    "།": 1425,
    "##tya": 21426,
    "choose": 5454,
    "##46": 21472,
    "knob": 16859,
    "160": 8148,
    "τ": 1174,
    "##cable": 21170,
    "prized": 25695,
    "coconut": 16027,
    "catchment": 22865,
    "lee": 3389,
    "gift": 5592,
    "nicaragua": 15448,
    "##ische": 13719,
    "oxidation": 19577,
    "relaxing": 19613,
    "queensland": 5322,
    "##ility": 15148,
    "munster": 11348,
    "screenings": 25437,
    "cousins": 12334,
    "jefferson": 7625,
    "picking": 8130,
    "link": 4957,
    "##ail": 12502,
    "1866": 7647,
    "inches": 5282,
    "meadows": 13524,
    "ferrer": 28390,
    "conspiracy": 9714,
    "spaceship": 25516,
    "sparta": 21251,
    "creek": 3636,
    "brought": 2716,
    "face": 2227,
    "[unused643]": 648,
    "finch": 16133,
    "seton": 28796,
    "aba": 19557,
    "tripoli": 21841,
    "##bm": 25526,
    "subdivided": 15369,
    "virtue": 11870,
    "##お": 30176,
    "##ited": 17572,
    "##mission": 25481,
    "tavi": 24283,
    "strain": 10178,
    "stamped": 20834,
    "complexity": 11619,
    "indefinitely": 20733,
    "birth": 4182,
    "prime": 3539,
    "mates": 14711,
    "ₐ": 1560,
    "[unused797]": 802,
    "##park": 14432,
    "ares": 23631,
    "larger": 3469,
    "m²": 7030,
    "annoyed": 11654,
    "stanton": 15845,
    "peg": 25039,
    "agrarian": 23226,
    "miriam": 16925,
    "sheltered": 18304,
    "##zbek": 28733,
    "exist": 4839,
    "owls": 22388,
    "fielder": 25000,
    "##basket": 25351,
    "nueva": 24536,
    "##ifer": 23780,
    "spectrum": 8674,
    "casket": 25864,
    "gerais": 29220,
    "merchants": 10310,
    "aisles": 25442,
    "##building": 25820,
    "rick": 6174,
    "pts": 19637,
    "francais": 22357,
    "relation": 7189,
    "dummy": 24369,
    "reasoning": 13384,
    "poses": 22382,
    "propelled": 15801,
    "##wai": 21547,
    "fulfilled": 16829,
    "##fr": 19699,
    "nadia": 14942,
    "rushes": 18545,
    "reassured": 26350,
    "georgina": 27358,
    "##lity": 18605,
    "anglican": 9437,
    "presents": 7534,
    "##י": 29796,
    "##ves": 6961,
    "young": 2402,
    "##風": 30503,
    "brandenburg": 16426,
    "##cini": 27085,
    "shaw": 8233,
    "陽": 1973,
    "simmons": 13672,
    "##34": 22022,
    "crimea": 21516,
    "captures": 19566,
    "trailers": 21389,
    "roads": 4925,
    "exercising": 28428,
    "##tan": 5794,
    "##isk": 20573,
    "##hampton": 21946,
    "1857": 8204,
    "[unused958]": 963,
    "ᅢ": 1471,
    "measured": 7594,
    "奈": 1814,
    "##int": 18447,
    "altar": 9216,
    "mont": 18318,
    "##eet": 15558,
    "survive": 5788,
    "freeze": 13184,
    "driveway": 11202,
    "marius": 20032,
    "##dna": 28911,
    "beatty": 27305,
    "##ass": 12054,
    "acknowledges": 28049,
    "##tropical": 25528,
    "dreamed": 13830,
    "levels": 3798,
    "roller": 11220,
    "hang": 6865,
    "practices": 6078,
    "cp": 18133,
    "completely": 3294,
    "enabling": 12067,
    "##⁻": 30079,
    "organize": 10939,
    "bypass": 11826,
    "resign": 12897,
    "neglect": 19046,
    "canonical": 18562,
    "kimball": 26659,
    "decreasing": 16922,
    "33rd": 20883,
    "[unused582]": 587,
    "alterations": 16705,
    "##mpt": 27718,
    "##berger": 14859,
    "heartbreak": 27724,
    "##bund": 27265,
    "stroke": 6909,
    "tinged": 22683,
    "1697": 28690,
    "1762": 20827,
    "##ene": 8625,
    "##kur": 18569,
    "abstracts": 29474,
    "burden": 10859,
    "class": 2465,
    "loses": 12386,
    "guessing": 16986,
    "slavery": 8864,
    "##東": 30405,
    "benton": 18685,
    "moore": 5405,
    "scrap": 15121,
    "dinner": 4596,
    "##lowe": 27663,
    "scoop": 23348,
    "[unused473]": 478,
    "corsica": 27047,
    "embraced": 14218,
    "macro": 26632,
    "vidhan": 28590,
    "sell": 5271,
    "1875": 7466,
    "asean": 27974,
    "##ono": 17175,
    "[unused775]": 780,
    "##iography": 26535,
    "peasant": 14539,
    "saxophonist": 19977,
    "browne": 15005,
    "commenting": 15591,
    "suggests": 6083,
    "polymer": 17782,
    "moroccan": 17494,
    "f": 1042,
    "adept": 26398,
    "tombs": 16623,
    "prey": 8336,
    "reed": 7305,
    "1881": 7005,
    "conversations": 11450,
    "##gat": 20697,
    "cs": 20116,
    "##56": 26976,
    "beginning": 2927,
    "##pts": 22798,
    "##ந": 29922,
    "rowland": 20539,
    "##ibly": 17296,
    "eine": 27665,
    "irritating": 29348,
    "rest": 2717,
    "bulb": 20581,
    "blazers": 28513,
    "cheerleading": 25721,
    "habit": 10427,
    "launching": 12106,
    "stamps": 12133,
    "testify": 19919,
    "avenue": 3927,
    "[unused234]": 239,
    "scotch": 18937,
    "peoples": 7243,
    "wakes": 17507,
    "curses": 23897,
    "143": 16065,
    "##川": 30361,
    "##tist": 16774,
    "##ford": 3877,
    "##₊": 30086,
    "likes": 7777,
    "runaway": 19050,
    "mammal": 25476,
    "newfoundland": 11944,
    "德": 1848,
    "sai": 18952,
    "254": 22234,
    "jerusalem": 6744,
    "highlighted": 11548,
    "sidney": 11430,
    "20s": 27074,
    "##phobic": 20200,
    "－": 1990,
    "shelton": 22230,
    "[unused992]": 997,
    "[unused493]": 498,
    "##rza": 24175,
    "bengals": 23227,
    "ellison": 21513,
    "flickering": 20046,
    "measure": 5468,
    "##uge": 22890,
    "alumnus": 19678,
    "midtown": 27219,
    "reception": 7684,
    "580": 23712,
    "caress": 21753,
    "ousted": 28368,
    "ᅮ": 1478,
    "bike": 7997,
    "asthma": 26180,
    "guerra": 24698,
    "notion": 9366,
    "##apes": 29040,
    "def": 13366,
    "##phobia": 24920,
    "briefs": 28760,
    "town": 2237,
    "manufactured": 7609,
    "fortunes": 18023,
    "surrounding": 4193,
    "earnings": 16565,
    "glove": 15913,
    "elusive": 26475,
    "lila": 19286,
    "mercenaries": 19331,
    "wo": 24185,
    "##iny": 24300,
    "[unused188]": 193,
    "[unused817]": 822,
    "2019": 10476,
    "heath": 9895,
    "principally": 16552,
    "indicted": 21801,
    "##ła": 22972,
    "##col": 25778,
    "rearview": 28726,
    "magic": 3894,
    "evaluated": 16330,
    "##tically": 25084,
    "##gren": 13565,
    "[unused40]": 41,
    "rebirth": 22785,
    "cm": 4642,
    "street": 2395,
    "政": 1860,
    "alcoholism": 25519,
    "juvenile": 11799,
    "periphery": 23275,
    "##tlan": 28922,
    "mercy": 8673,
    "sink": 7752,
    "ozone": 26443,
    "dukes": 16606,
    "pandora": 19066,
    "peanut": 21443,
    "backed": 6153,
    "international": 2248,
    "taboo": 27505,
    "furlongs": 26602,
    "indoors": 24274,
    "weight": 3635,
    "yoo": 26823,
    "rutgers": 18607,
    "[unused231]": 236,
    "stock": 4518,
    "##gent": 11461,
    "loomed": 24358,
    "colbert": 23928,
    "venerable": 24541,
    "adventurous": 29118,
    "aristocracy": 22706,
    "##খ": 29890,
    "erica": 19295,
    "unpaid": 23850,
    "originates": 16896,
    "bai": 21790,
    "##ᵗ": 30041,
    "lies": 3658,
    "hunt": 5690,
    "patents": 13979,
    "houston": 5395,
    "allowance": 21447,
    "##economic": 23035,
    "##pia": 19312,
    "##eche": 27635,
    "747": 25374,
    "shareholder": 18668,
    "soluble": 24345,
    "elgin": 23792,
    "##tting": 13027,
    "playhouse": 17408,
    "##kaya": 20718,
    "derivatives": 16942,
    "mutation": 16221,
    "modifying": 29226,
    "sniffing": 27646,
    "inadvertently": 21089,
    "nino": 20801,
    "necklace": 13016,
    "dresser": 16641,
    "nrl": 20686,
    "##rr": 12171,
    "##bags": 26813,
    "usaf": 18531,
    "sparked": 13977,
    "##view": 8584,
    "citizens": 4480,
    "indians": 6505,
    "planners": 27155,
    "app": 10439,
    "criticism": 6256,
    "nanny": 19174,
    "nova": 6846,
    "##ban": 8193,
    "killers": 15978,
    "web": 4773,
    "1708": 27337,
    "manifest": 19676,
    "restructuring": 18322,
    "1767": 21502,
    "damon": 11317,
    "##beau": 26401,
    "##ace": 10732,
    "cole": 5624,
    "reviewed": 8182,
    "treated": 5845,
    "##ht": 11039,
    "requirement": 9095,
    "maids": 29229,
    "comparison": 7831,
    "##ades": 18673,
    "drafts": 28967,
    "kensington": 17775,
    "pornographic": 26932,
    "calgary": 10112,
    "waterway": 23668,
    "er": 9413,
    "scorpion": 22015,
    "klein": 12555,
    "unnamed": 13294,
    "unit": 3131,
    "##nne": 10087,
    "‐": 1513,
    "kiran": 22403,
    "meyrick": 15228,
    "##dra": 7265,
    "boxers": 18508,
    "confidential": 18777,
    "##ن": 15915,
    "remainder": 6893,
    "##eran": 23169,
    "affinity": 16730,
    "prisoner": 7267,
    "never": 2196,
    "extensively": 8077,
    "nightclub": 15479,
    "lehman": 28444,
    "brit": 28101,
    "khz": 17737,
    "sq": 5490,
    "victims": 5694,
    "『": 1643,
    "helmet": 10412,
    "cinematographer": 19245,
    "strive": 29453,
    "qualifications": 15644,
    "坂": 1803,
    "caution": 14046,
    "circled": 14867,
    "counselor": 17220,
    "particles": 9309,
    "₆": 1553,
    "eugen": 29273,
    "airing": 10499,
    "hosting": 9936,
    "245": 21005,
    "##moto": 15319,
    "niece": 12286,
    "ceremonies": 10912,
    "challenge": 4119,
    "archer": 11024,
    "grade": 3694,
    "writ": 25697,
    "two": 2048,
    "allowing": 4352,
    "adapted": 5967,
    "97": 5989,
    "blogger": 28205,
    "inclusive": 18678,
    "pictorial": 28304,
    "responding": 14120,
    "[": 1031,
    "390": 20024,
    "presidential": 4883,
    "mango": 24792,
    "spartans": 24293,
    "tsunami": 19267,
    "qualifier": 10981,
    "garner": 18661,
    "##uno": 27819,
    "depart": 18280,
    "##gic": 12863,
    "foremost": 16097,
    "sen": 12411,
    "impacts": 14670,
    "lynn": 9399,
    "##₱": 30103,
    "november": 2281,
    "gough": 29124,
    "##tam": 15464,
    "ک": 1304,
    "##ald": 19058,
    "sienna": 20210,
    "##ilde": 23891,
    "##tails": 22081,
    "viewer": 13972,
    "backing": 5150,
    "massacre": 9288,
    "49ers": 18156,
    "72": 5824,
    "pegasus": 26606,
    "galerie": 17941,
    "##olis": 20872,
    "##}": 29642,
    "saber": 25653,
    "##yad": 25152,
    "seemingly": 9428,
    "wider": 7289,
    "##pire": 20781,
    "advertisements": 14389,
    "als": 25520,
    "angie": 14835,
    "climatic": 27301,
    "fairies": 20182,
    "represent": 5050,
    "muffled": 15783,
    "gillespie": 21067,
    "ec": 14925,
    "screamed": 7210,
    "uploaded": 21345,
    "worked": 2499,
    "proposing": 21991,
    "[unused483]": 488,
    "portrays": 17509,
    "hollow": 8892,
    "authority": 3691,
    "cabinet": 5239,
    "lightweight": 12038,
    "sidewalks": 28386,
    "skopje": 29255,
    "[unused259]": 264,
    "ང": 1427,
    "1988": 2997,
    "azerbaijan": 8365,
    "##lge": 28875,
    "expenditures": 22697,
    "##cio": 9793,
    "##hy": 10536,
    "accountable": 26771,
    "[unused737]": 742,
    "html": 16129,
    "kaitlyn": 28584,
    "##ally": 3973,
    "litter": 19070,
    "voters": 7206,
    "cushion": 22936,
    "[unused595]": 600,
    "boar": 24187,
    "memorable": 13432,
    "petersen": 22615,
    "gathering": 7215,
    "##ere": 7869,
    "donors": 17843,
    "tire": 12824,
    "・": 1738,
    "##ric": 7277,
    "ʑ": 1137,
    "iroquois": 23015,
    "##uz": 17040,
    "jang": 23769,
    "pasadena": 18880,
    "referring": 7727,
    "templar": 27850,
    "trends": 12878,
    "##che": 5403,
    "burkina": 23089,
    "floor": 2723,
    "##ost": 14122,
    "##ка": 28598,
    "wooden": 4799,
    "alpine": 10348,
    "deployment": 10813,
    "transmitter": 11659,
    "##ে": 29917,
    "brazil": 4380,
    "caden": 23600,
    "ticked": 26019,
    "##باد": 25799,
    "demand": 5157,
    "registration": 8819,
    "crosses": 7821,
    "mystic": 17477,
    "rm": 28549,
    "gastropod": 10953,
    "organ": 5812,
    "scream": 6978,
    "stubborn": 14205,
    "truman": 15237,
    "boulder": 13264,
    "dowager": 20508,
    "##ny": 4890,
    "##（": 30513,
    "vibrant": 17026,
    "г": 1183,
    "##∂": 30120,
    "popularity": 6217,
    "devoid": 22808,
    "267": 25491,
    "tailored": 21727,
    "lump": 15116,
    "detector": 19034,
    "thus": 2947,
    "sun": 3103,
    "##vate": 16952,
    "[unused79]": 80,
    "bandages": 27993,
    "slowed": 9784,
    "tar": 16985,
    "##त": 29859,
    "downfall": 22252,
    "frantic": 15762,
    "ample": 20851,
    "##22": 19317,
    "ludwig": 10302,
    "situ": 26179,
    "##pol": 18155,
    "diner": 15736,
    "yanking": 25716,
    "##bt": 19279,
    "bearings": 21714,
    "##nya": 17238,
    "reference": 4431,
    "abduction": 23415,
    "tagged": 26610,
    "pulmonary": 21908,
    "ioc": 25941,
    "sears": 18493,
    "##евич": 22646,
    "sword": 4690,
    "kv": 24888,
    "##hone": 27406,
    "thoughtfully": 19897,
    "##raj": 14220,
    "kisses": 8537,
    "probing": 28664,
    "1778": 16331,
    "fours": 23817,
    "share": 3745,
    "start": 2707,
    "rookie": 8305,
    "zimmerman": 27946,
    "intercept": 19115,
    "sands": 13457,
    "##cine": 16567,
    "bao": 25945,
    "chunks": 24839,
    "list": 2862,
    "regarded": 5240,
    "##ended": 21945,
    "countess": 11716,
    "shield": 6099,
    "yao": 23711,
    "kerr": 14884,
    "products": 3688,
    "[unused233]": 238,
    "hawkins": 13835,
    "mcdonald": 9383,
    "##top": 14399,
    "[unused788]": 793,
    "husky": 18758,
    "zu": 16950,
    "george": 2577,
    "tower": 3578,
    "varsity": 11710,
    "imagination": 9647,
    "[unused282]": 287,
    "cosmic": 14448,
    "prostitution": 15016,
    "bedroom": 5010,
    "gee": 20277,
    "obituary": 20815,
    "287": 23090,
    "intervening": 26623,
    "yin": 18208,
    "residing": 7154,
    "highly": 3811,
    "performed": 2864,
    "commemorated": 19131,
    "roma": 12836,
    "##vers": 14028,
    "##rud": 28121,
    "加": 1779,
    "expand": 7818,
    "madeira": 27309,
    "gideon": 12137,
    "folks": 12455,
    "release": 2713,
    "deported": 17929,
    "1748": 24445,
    "mayhem": 26865,
    "##osaurus": 25767,
    "slam": 9555,
    "psycho": 18224,
    "ɐ": 1109,
    "explored": 10641,
    "##hard": 11783,
    "lana": 16554,
    "##aus": 20559,
    "fictitious": 23577,
    "spared": 16891,
    "teammates": 13220,
    "madman": 28441,
    "plaque": 11952,
    "peerage": 18760,
    "thankfully": 16047,
    "##mouth": 14359,
    "vfl": 13480,
    "beak": 23525,
    "travellers": 19284,
    "aston": 14327,
    "pardon": 14933,
    "incorporate": 13265,
    "##hiff": 25798,
    "bazaar": 22774,
    "##uy": 26230,
    "lining": 14834,
    "schneider": 15159,
    "treating": 12318,
    "##里": 30488,
    "##actic": 28804,
    "gland": 25320,
    "##cast": 10526,
    "memorandum": 20336,
    "organs": 11595,
    "permission": 6656,
    "mapping": 12375,
    "1720": 23535,
    "sudden": 5573,
    "distribute": 16062,
    "ah": 6289,
    "##ன": 29923,
    "none": 3904,
    "inherited": 7900,
    "reluctant": 11542,
    "motions": 15323,
    "##х": 29750,
    "dripped": 22526,
    "##bas": 22083,
    "dempsey": 28165,
    "tunisia": 13437,
    "##ur": 3126,
    "##ouse": 15441,
    "wickets": 10370,
    "severn": 24753,
    "##anger": 25121,
    "##hs": 7898,
    "corporations": 11578,
    "substrates": 23725,
    "##oman": 20778,
    "musique": 25784,
    "calendar": 8094,
    "example": 2742,
    "##pro": 21572,
    "exemplified": 28593,
    "quieter": 27486,
    "rita": 11620,
    "palatinate": 18990,
    "43rd": 25747,
    "cushions": 27205,
    "montane": 21704,
    "ケ": 1703,
    "##rries": 26801,
    "adventurer": 29506,
    "strains": 18859,
    "advanced": 3935,
    "controlled": 4758,
    "gatherings": 21403,
    "those": 2216,
    "##strom": 15687,
    "atari": 18978,
    "reducing": 8161,
    "whose": 3005,
    "shah": 7890,
    "lodge": 7410,
    "abandon": 10824,
    "bros": 10243,
    "steelers": 15280,
    "default": 12398,
    "hazardous": 17760,
    "thinking": 3241,
    "miss": 3335,
    "gabriel": 6127,
    "presence": 3739,
    "sail": 9498,
    "segunda": 19071,
    "yeomanry": 26883,
    "##セ": 30234,
    "contests": 15795,
    "1750": 18171,
    "tails": 17448,
    "##hear": 26560,
    "ir": 20868,
    "salford": 23001,
    "gardening": 21529,
    "reaching": 4285,
    "handful": 9210,
    "contrast": 5688,
    "canvas": 10683,
    "remorse": 23124,
    "##dron": 19440,
    "##dal": 9305,
    "clutched": 13514,
    "dual": 7037,
    "merchandise": 16359,
    "主": 1747,
    "stair": 23788,
    "##艹": 30465,
    "winnipeg": 11093,
    "lough": 29504,
    "rosemary": 18040,
    "##oka": 12352,
    "merely": 6414,
    "prisoners": 5895,
    "[unused349]": 354,
    "tastes": 16958,
    "genuinely": 15958,
    "ballroom": 14307,
    "routinely": 19974,
    "fatal": 10611,
    "scully": 25686,
    "monarch": 11590,
    "[unused189]": 194,
    "bank": 2924,
    "dislike": 18959,
    "arsenal": 9433,
    "##sable": 19150,
    "1883": 7257,
    "mimi": 20705,
    "nakamura": 23981,
    "heated": 9685,
    "ratings": 8599,
    "##ʾ": 29713,
    "##tained": 28055,
    "##gna": 16989,
    "concluding": 16228,
    "disabilities": 13597,
    "[unused155]": 160,
    "##כ": 29798,
    "##hot": 12326,
    "dare": 8108,
    "deny": 9772,
    "obtain": 6855,
    "remove": 6366,
    "##room": 9954,
    "##taka": 28412,
    "##ols": 27896,
    "filipino": 10275,
    "peaked": 6601,
    "##ko": 3683,
    "normally": 5373,
    "##cave": 27454,
    "characterized": 7356,
    "bearer": 20905,
    "mistaken": 13534,
    "genome": 13458,
    "enrichment": 27226,
    "##nus": 10182,
    "cars": 3765,
    "interior": 4592,
    "laurent": 14718,
    "##gies": 17252,
    "dona": 24260,
    "trinidad": 11856,
    "ᆨ": 1484,
    "vladimir": 8748,
    "cheshire": 13789,
    "detectors": 25971,
    "ducked": 13781,
    "##よ": 30210,
    "rebellious": 22614,
    "##₀": 17110,
    "rihanna": 25439,
    "theorists": 28442,
    "130": 7558,
    "section": 2930,
    "vegetable": 15415,
    "29": 2756,
    "vr": 27830,
    "₂": 1549,
    "avail": 24608,
    "worth": 4276,
    "minh": 19538,
    "brilliant": 8235,
    "cot": 26046,
    "initially": 3322,
    "canoe": 14347,
    "doses": 21656,
    "baronetcy": 25071,
    "targeting": 14126,
    "births": 18250,
    "metaphysical": 29081,
    "shriek": 24795,
    "##isen": 28992,
    "intrinsic": 23807,
    "cancers": 25409,
    "ritter": 23168,
    "earth": 3011,
    "filmed": 6361,
    "susannah": 20471,
    "##xon": 22500,
    "newmarket": 22489,
    "refused": 4188,
    "##nor": 12131,
    "[unused869]": 874,
    "explanation": 7526,
    "##龍": 30508,
    "137": 14989,
    "1928": 4662,
    "##ona": 7856,
    "sorority": 27600,
    "therapy": 7242,
    "##logist": 10727,
    "ling": 17002,
    "short": 2460,
    "amendment": 7450,
    "##ucher": 22368,
    "directory": 14176,
    "biennial": 20313,
    "sentence": 6251,
    "campos": 26925,
    "boasted": 23390,
    "medications": 20992,
    "[unused730]": 735,
    "applies": 12033,
    "regulated": 12222,
    "chihuahua": 28480,
    "321": 24030,
    "encompassing": 19129,
    "canon": 9330,
    "##yes": 23147,
    "syllables": 20732,
    "delaying": 29391,
    "fielded": 20988,
    "reorganization": 17118,
    "references": 7604,
    "1878": 7261,
    "[unused248]": 253,
    "aachen": 29093,
    "factories": 11123,
    "organizer": 19012,
    "titles": 4486,
    "glided": 26936,
    "bloomberg": 22950,
    "pain": 3255,
    "disappointment": 10520,
    "anticipation": 11162,
    "bumper": 21519,
    "lucrative": 21115,
    "declares": 18806,
    "warrior": 6750,
    "remake": 12661,
    "catalyst": 16771,
    "##ify": 8757,
    "frankly": 19597,
    "grasped": 15517,
    "hacking": 23707,
    "novel": 3117,
    "problems": 3471,
    "ringing": 13060,
    "unusual": 5866,
    "legally": 10142,
    "shillings": 29332,
    "##ze": 4371,
    "##litz": 24725,
    "pat": 6986,
    "bullock": 25200,
    "[unused181]": 186,
    "recycling": 17874,
    "##uen": 24997,
    "late": 2397,
    "s": 1055,
    "sabah": 22515,
    "##blood": 26682,
    "exploitation": 14427,
    "fetch": 18584,
    "rum": 19379,
    "bedrooms": 18390,
    "sinatra": 19643,
    "jones": 3557,
    "guidance": 8606,
    "##edo": 26010,
    "lighting": 7497,
    "clouded": 26761,
    "plagued": 17808,
    "typed": 21189,
    "rising": 4803,
    "yearly": 12142,
    "松": 1880,
    "##saurus": 22244,
    "∩": 1604,
    "laundry": 14533,
    "##bing": 10472,
    "academy": 2914,
    "coefficient": 19064,
    "ъ": 1205,
    "##bat": 14479,
    "tracey": 25984,
    "##iary": 17302,
    "optimization": 20600,
    "##cola": 26289,
    "vibrations": 22755,
    "trumpets": 26506,
    "##orio": 27416,
    "sketches": 12741,
    "##chev": 16179,
    "showers": 23442,
    "kazan": 22001,
    "##ʿ": 29714,
    "venezuela": 8326,
    "coordinator": 10669,
    "##lley": 25105,
    "regions": 4655,
    "aroused": 18391,
    "ᄌ": 1464,
    "1811": 13086,
    "brute": 26128,
    "emotion": 7603,
    "couple": 3232,
    "comparing": 13599,
    "larry": 6554,
    "rudy": 18254,
    "were": 2020,
    "##sor": 21748,
    "##eed": 13089,
    "##liest": 21292,
    "##গ": 29891,
    "modelling": 19518,
    "waste": 5949,
    "programmer": 20273,
    "aux": 19554,
    "##太": 30338,
    "cabbage": 28540,
    "pleas": 22512,
    "sized": 7451,
    "eton": 21687,
    "leafs": 21349,
    "attribute": 17961,
    "php": 25718,
    "##hett": 28499,
    "##imating": 22835,
    "embrace": 9979,
    "taller": 12283,
    "##systems": 29390,
    "ashton": 13772,
    "li": 5622,
    "parting": 20254,
    "31": 2861,
    "ɹ": 1125,
    "recover": 8980,
    "vines": 16702,
    "roared": 14242,
    "captain": 2952,
    "jar": 15723,
    "ᅵ": 1483,
    "longer": 2936,
    "ind": 27427,
    "wrinkled": 15968,
    "kept": 2921,
    "actions": 4506,
    "maison": 26420,
    "長": 1967,
    "291": 27173,
    "bianca": 18051,
    "1980s": 3865,
    "##ors": 5668,
    "##rret": 27032,
    "warm": 4010,
    "##sa": 3736,
    "ᄃ": 1457,
    "##ita": 6590,
    "##non": 8540,
    "##otic": 20214,
    "comrade": 27661,
    "reeling": 28515,
    "placed": 2872,
    "siegfried": 25948,
    "archie": 13255,
    "rewarded": 14610,
    "##pg": 26952,
    "hubert": 15346,
    "strategically": 23972,
    "murphy": 7104,
    "organizing": 10863,
    "tribunal": 12152,
    "seamus": 24993,
    "##skaya": 23070,
    "tori": 23413,
    "dal": 17488,
    "previously": 3130,
    "newbury": 29457,
    "algebraic": 17390,
    "overtook": 28920,
    "distinguishing": 20852,
    "barry": 6287,
    "bonded": 20886,
    "##nto": 13663,
    "[unused193]": 198,
    "expelled": 10016,
    "magdalena": 23984,
    "lied": 9828,
    "[unused886]": 891,
    "##sf": 22747,
    "debbie": 16391,
    "juarez": 25398,
    "technologies": 6786,
    "mustafa": 19683,
    "data": 2951,
    "due": 2349,
    "##omba": 24991,
    "purchases": 17402,
    "##ech": 15937,
    "hermann": 12224,
    "##bola": 24290,
    "##creen": 24410,
    "nk": 25930,
    "eats": 20323,
    "hail": 16889,
    "blanca": 27538,
    "##lp": 14277,
    "##出": 30300,
    "com": 4012,
    "##vina": 17948,
    "19th": 3708,
    "##old": 11614,
    "cullen": 19925,
    "##oted": 27428,
    "decrease": 9885,
    "particularly": 3391,
    "##eo": 8780,
    "disused": 26958,
    "incarcerated": 23995,
    "staunch": 26355,
    "whistle": 13300,
    "napoli": 29485,
    "bars": 6963,
    "crusaders": 18831,
    "##द": 29861,
    "##ahl": 28083,
    "meetings": 6295,
    "##zon": 11597,
    "norte": 19931,
    "ideological": 17859,
    "[unused49]": 50,
    "fujian": 29551,
    "##planes": 26634,
    "shovel": 24596,
    "brittle": 24650,
    "##around": 24490,
    "##rini": 22612,
    "##emia": 17577,
    "magna": 20201,
    "##screen": 18182,
    "tehran": 13503,
    "valentin": 24632,
    "wilderness": 9917,
    "reverted": 16407,
    "sarcastically": 23800,
    "##nx": 26807,
    "matter": 3043,
    "##ack": 8684,
    "##上": 30268,
    "[unused849]": 854,
    "bottles": 11015,
    "dialogues": 22580,
    "hearings": 19153,
    "##otype": 26305,
    "##imeters": 28136,
    "conform": 23758,
    "godfrey": 18238,
    "##語": 30476,
    "##ョ": 30256,
    "amended": 13266,
    "blinking": 15997,
    "impairment": 25172,
    "##ifier": 18095,
    "expresses": 16783,
    "miranda": 9392,
    "1784": 16496,
    "naughty": 20355,
    "remotely": 19512,
    "weak": 5410,
    "akron": 22735,
    "tricked": 24929,
    "warp": 24136,
    "mp": 6131,
    "stud": 16054,
    "baton": 15302,
    "konrad": 22958,
    "##‘": 30055,
    "climb": 7105,
    "hess": 23484,
    "borough": 5538,
    "##quitable": 28298,
    "curiously": 16484,
    "##achal": 24409,
    "##jana": 18803,
    "##eus": 10600,
    "[unused92]": 93,
    "##ense": 16700,
    "]": 1033,
    "chieftain": 26625,
    "holes": 8198,
    "straightforward": 19647,
    "reductions": 25006,
    "neglected": 15486,
    "306": 24622,
    "[unused681]": 686,
    "exchanging": 25620,
    "strangled": 21384,
    "almost": 2471,
    "terror": 7404,
    "mankind": 14938,
    "fires": 8769,
    "impressions": 19221,
    "rounded": 8352,
    "[unused518]": 523,
    "revered": 23886,
    "##ddling": 21814,
    "ვ": 1443,
    "gasp": 12008,
    "##nt": 3372,
    "owing": 11427,
    "##dition": 20562,
    "gigantic": 20193,
    "[unused657]": 662,
    "sorted": 19616,
    "mechanism": 7337,
    "mindanao": 23669,
    "ultimatum": 29227,
    "##rone": 20793,
    "coloured": 11401,
    "freiburg": 22871,
    "##hora": 16977,
    "##omy": 16940,
    "legitimacy": 22568,
    "telangana": 23764,
    "college": 2267,
    "flexed": 24244,
    "churchill": 10888,
    "asher": 17243,
    "crafts": 14030,
    "aisle": 12485,
    "rediscovered": 26733,
    "sabres": 26969,
    "libya": 12917,
    "martial": 7761,
    "pajamas": 27621,
    "##ified": 7810,
    "naked": 6248,
    "uae": 17641,
    "ranked": 4396,
    "delivers": 18058,
    "butch": 17520,
    "ob": 27885,
    "hasan": 17000,
    "sirens": 20675,
    "directed": 2856,
    "research": 2470,
    "scouting": 14299,
    "##gged": 15567,
    "flicking": 26259,
    "babylon": 17690,
    "[unused469]": 474,
    "mistakes": 12051,
    "diver": 17856,
    "##jad": 27875,
    "reform": 5290,
    "##ী": 29916,
    "queens": 8603,
    "freight": 8441,
    "cried": 6639,
    "##lid": 21273,
    "crete": 19111,
    "pulling": 4815,
    "[unused20]": 21,
    "smartphone": 26381,
    "electoral": 6092,
    "spencer": 7084,
    "knoxville": 20021,
    "1644": 23477,
    "constantinople": 11776,
    "account": 4070,
    "##nden": 25915,
    "refurbishment": 24478,
    "##♥": 30152,
    "factor": 5387,
    "##avio": 28471,
    "detailing": 17555,
    "fueled": 17999,
    "holstein": 18864,
    "sprinter": 19938,
    "tobin": 28096,
    "india": 2634,
    "[unused70]": 71,
    "hindwings": 15998,
    "indo": 11424,
    "devastating": 14886,
    "iv": 4921,
    "reich": 14365,
    "##rri": 18752,
    "syriac": 24109,
    "counting": 10320,
    "dawn": 6440,
    "bradshaw": 23762,
    "rocky": 6857,
    "barons": 21487,
    "itself": 2993,
    "##ye": 6672,
    "##ffey": 24513,
    "##レ": 30260,
    "popularized": 20339,
    "chichester": 23406,
    "mannheim": 25116,
    "tracked": 12808,
    "[unused867]": 872,
    "##oh": 11631,
    "antiques": 27763,
    "l": 1048,
    "affordable": 15184,
    "disappointing": 15640,
    "##cchi": 25955,
    "range": 2846,
    "##rous": 13288,
    "tenor": 9534,
    "spicy": 25482,
    "calm": 5475,
    "feature": 3444,
    "70": 3963,
    "sincerity": 23997,
    "leagues": 8121,
    "##kas": 13716,
    "indonesia": 6239,
    "refreshing": 27150,
    "ax": 22260,
    "racks": 27259,
    "beard": 10154,
    "residency": 14079,
[...]
